{
  "version": "1.0",
  "truncation": null,
  "padding": null,
  "added_tokens": [
    {
      "id": 0,
      "content": "<|endoftext|>",
      "single_word": false,
      "lstrip": false,
      "rstrip": false,
      "normalized": false,
      "special": true
    },
    {
      "id": 1,
      "content": "<|unk|>",
      "single_word": false,
      "lstrip": false,
      "rstrip": false,
      "normalized": false,
      "special": true
    }
  ],
  "normalizer": null,
  "pre_tokenizer": {
    "type": "ByteLevel",
    "add_prefix_space": false,
    "trim_offsets": true,
    "use_regex": true
  },
  "post_processor": null,
  "decoder": {
    "type": "ByteLevel",
    "add_prefix_space": true,
    "trim_offsets": true,
    "use_regex": true
  },
  "model": {
    "type": "BPE",
    "dropout": null,
    "unk_token": "<|unk|>",
    "continuing_subword_prefix": null,
    "end_of_word_suffix": null,
    "fuse_unk": false,
    "byte_fallback": false,
    "ignore_merges": false,
    "vocab": {
      "<|endoftext|>": 0,
      "<|unk|>": 1,
      "!": 2,
      "\"": 3,
      "#": 4,
      "$": 5,
      "&": 6,
      "'": 7,
      "(": 8,
      ")": 9,
      "*": 10,
      "+": 11,
      ",": 12,
      "-": 13,
      ".": 14,
      "/": 15,
      "0": 16,
      "1": 17,
      "2": 18,
      "3": 19,
      "4": 20,
      "5": 21,
      "6": 22,
      "7": 23,
      "8": 24,
      "9": 25,
      ":": 26,
      ";": 27,
      "?": 28,
      "A": 29,
      "B": 30,
      "C": 31,
      "D": 32,
      "E": 33,
      "F": 34,
      "G": 35,
      "H": 36,
      "I": 37,
      "J": 38,
      "K": 39,
      "L": 40,
      "M": 41,
      "N": 42,
      "O": 43,
      "P": 44,
      "Q": 45,
      "R": 46,
      "S": 47,
      "T": 48,
      "U": 49,
      "V": 50,
      "W": 51,
      "X": 52,
      "Y": 53,
      "Z": 54,
      "[": 55,
      "_": 56,
      "`": 57,
      "a": 58,
      "b": 59,
      "c": 60,
      "d": 61,
      "e": 62,
      "f": 63,
      "g": 64,
      "h": 65,
      "i": 66,
      "j": 67,
      "k": 68,
      "l": 69,
      "m": 70,
      "n": 71,
      "o": 72,
      "p": 73,
      "q": 74,
      "r": 75,
      "s": 76,
      "t": 77,
      "u": 78,
      "v": 79,
      "w": 80,
      "x": 81,
      "y": 82,
      "z": 83,
      "Ċ": 84,
      "Ġ": 85,
      "Ġt": 86,
      "he": 87,
      "Ġa": 88,
      "Ġs": 89,
      "Ġw": 90,
      "nd": 91,
      "Ġthe": 92,
      "ed": 93,
      "Ġb": 94,
      "Ġto": 95,
      "Ġand": 96,
      "Ġh": 97,
      "Ġf": 98,
      "in": 99,
      "ĠT": 100,
      "Ġwa": 101,
      "re": 102,
      "it": 103,
      "ou": 104,
      "Ġl": 105,
      "Ġd": 106,
      "Ġc": 107,
      "Ġp": 108,
      "ay": 109,
      "Ġm": 110,
      "er": 111,
      "Ġwas": 112,
      "om": 113,
      "ĠThe": 114,
      "Ġhe": 115,
      "is": 116,
      "Ġn": 117,
      "ar": 118,
      "im": 119,
      "on": 120,
      "Ġsa": 121,
      "id": 122,
      "ll": 123,
      "Ġha": 124,
      "Ġg": 125,
      "at": 126,
      "ing": 127,
      "ĠS": 128,
      "ot": 129,
      "en": 130,
      "an": 131,
      "le": 132,
      "or": 133,
      "ir": 134,
      "am": 135,
      "et": 136,
      "ĠH": 137,
      "Ġit": 138,
      "Ġth": 139,
      "ig": 140,
      "ĠThey": 141,
      "il": 142,
      "Ġin": 143,
      "Ġ\"": 144,
      "Ġpl": 145,
      "ĠHe": 146,
      "ow": 147,
      "ri": 148,
      "ver": 149,
      "ut": 150,
      "Ġbe": 151,
      "Ġu": 152,
      "Ġplay": 153,
      "Ġsaid": 154,
      "ith": 155,
      "Ġday": 156,
      "pp": 157,
      "Ġwith": 158,
      "On": 159,
      "Ġo": 160,
      "Ġy": 161,
      "oo": 162,
      "ked": 163,
      "Ġr": 164,
      "Ġher": 165,
      "ce": 166,
      "ĠI": 167,
      "ĠShe": 168,
      "ld": 169,
      "ĠTim": 170,
      "Ġhis": 171,
      "Ġst": 172,
      "ke": 173,
      "Ġe": 174,
      "Ġbig": 175,
      "nt": 176,
      "ck": 177,
      "Ġyou": 178,
      "very": 179,
      "st": 180,
      "ve": 181,
      "end": 182,
      "Ġon": 183,
      "un": 184,
      "Ġhapp": 185,
      "riend": 186,
      "Ġfriend": 187,
      "all": 188,
      "ily": 189,
      "ĠL": 190,
      "Ġthey": 191,
      "Ġwe": 192,
      "Ġhad": 193,
      "Ġnot": 194,
      "Ġup": 195,
      "Ġli": 196,
      "her": 197,
      "Ġwant": 198,
      "Ġof": 199,
      "ad": 200,
      "itt": 201,
      "se": 202,
      "ĠB": 203,
      "Ġdo": 204,
      "Ġhappy": 205,
      "ent": 206,
      "Ġvery": 207,
      "ĠM": 208,
      "'s": 209,
      "es": 210,
      "Ġthat": 211,
      "Ġsaw": 212,
      "One": 213,
      "ould": 214,
      "Ġfor": 215,
      "Ġmom": 216,
      "Ġsh": 217,
      "ittle": 218,
      "Ġso": 219,
      "Ġlittle": 220,
      "Ġshe": 221,
      ".\"": 222,
      "ime": 223,
      "Ġne": 224,
      "ch": 225,
      "Ġnam": 226,
      "Ġtime": 227,
      "Ġk": 228,
      "ound": 229,
      "Ġthere": 230,
      "Ġnamed": 231,
      "Ġsm": 232,
      "Ġbo": 233,
      "ĠLily": 234,
      "Ġwere": 235,
      "!\"": 236,
      "Ġwanted": 237,
      "out": 238,
      "Ġbut": 239,
      "Ġfriends": 240,
      "The": 241,
      "ved": 242,
      "ht": 243,
      "ĠTom": 244,
      "ird": 245,
      "el": 246,
      "al": 247,
      "ake": 248,
      "Ġan": 249,
      "Ġbird": 250,
      "ome": 251,
      "Ġtoo": 252,
      "ug": 253,
      "ĠIt": 254,
      "ide": 255,
      "Ġwent": 256,
      "Ġwh": 257,
      "Ġhel": 258,
      "Once": 259,
      "ue": 260,
      "Ġis": 261,
      "Ġall": 262,
      "Ġhelp": 263,
      "Ġloo": 264,
      "Ġlo": 265,
      "ĠA": 266,
      "Ġupon": 267,
      "ter": 268,
      "ry": 269,
      "ore": 270,
      "Ġfun": 271,
      "get": 272,
      "ind": 273,
      "ill": 274,
      "Ġtoy": 275,
      "ame": 276,
      "Ġas": 277,
      "Ġat": 278,
      "Ġj": 279,
      "ra": 280,
      "Ġdid": 281,
      "gether": 282,
      "Ġre": 283,
      "ur": 284,
      "Ġtogether": 285,
      "Ġse": 286,
      "ack": 287,
      "Ġtre": 288,
      "Ġcat": 289,
      "ly": 290,
      "ood": 291,
      "ic": 292,
      "Ġdog": 293,
      "ted": 294,
      "Ġcould": 295,
      "Ġcan": 296,
      "Ġtheir": 297,
      "ard": 298,
      "?\"": 299,
      "ark": 300,
      "ec": 301,
      "Ġgir": 302,
      "Ġplayed": 303,
      "Ġhim": 304,
      "Ġgirl": 305,
      "way": 306,
      "Ġball": 307,
      "'t": 308,
      "Ġgo": 309,
      "my": 310,
      "Ġro": 311,
      "Ġout": 312,
      "hed": 313,
      "Ġare": 314,
      "ain": 315,
      "Ġle": 316,
      "Ġkn": 317,
      "Ġfr": 318,
      "hen": 319,
      "Ġthem": 320,
      "um": 321,
      "ax": 322,
      "Ġsad": 323,
      "Ġtree": 324,
      "ul": 325,
      "Ġboy": 326,
      "Ġhave": 327,
      "other": 328,
      "Ġman": 329,
      "Ġcl": 330,
      "Ġloved": 331,
      "Ġlooked": 332,
      "oug": 333,
      "Ġfound": 334,
      "Ġsp": 335,
      "Ġstar": 336,
      "one": 337,
      "ĠSue": 338,
      "hing": 339,
      "Ġsc": 340,
      "Ġback": 341,
      "own": 342,
      "ĠMax": 343,
      "Ġlike": 344,
      "are": 345,
      "side": 346,
      "Ġme": 347,
      "ful": 348,
      "Ġbec": 349,
      "ight": 350,
      "ong": 351,
      "Ġcar": 352,
      "Ġpark": 353,
      "op": 354,
      "elt": 355,
      "Ġliked": 356,
      "ĠOne": 357,
      "Ġwould": 358,
      "round": 359,
      "Ġmake": 360,
      "Ġla": 361,
      "Ġfelt": 362,
      "Ġfa": 363,
      "You": 364,
      "ĠW": 365,
      "omet": 366,
      "Ġsee": 367,
      "ĠBut": 368,
      "ell": 369,
      "ouse": 370,
      "Ġasked": 371,
      "Ġno": 372,
      "Ġnew": 373,
      "ag": 374,
      "ĠBen": 375,
      "Ġstarted": 376,
      "ared": 377,
      "ice": 378,
      "Ġcame": 379,
      "ĠSam": 380,
      "Ġal": 381,
      "Ġother": 382,
      "ought": 383,
      "iled": 384,
      "Ġsomet": 385,
      "Ġag": 386,
      "Ġgood": 387,
      "Ġsmall": 388,
      "ss": 389,
      "Ġbr": 390,
      "Ġsay": 391,
      "Ġsmiled": 392,
      "ings": 393,
      "ade": 394,
      "ried": 395,
      "ob": 396,
      "pot": 397,
      "Ġwor": 398,
      "Ġex": 399,
      "Ġaway": 400,
      "Ġfind": 401,
      "Ġput": 402,
      "Ġsomething": 403,
      "ia": 404,
      "ty": 405,
      "Ġmade": 406,
      "Ġwhat": 407,
      "Ġco": 408,
      "Ġhome": 409,
      "Ġthought": 410,
      "ened": 411,
      "Ġfrom": 412,
      "Ġplaying": 413,
      "Ġwal": 414,
      "ook": 415,
      "Ġevery": 416,
      "Ġmu": 417,
      "ĠSpot": 418,
      "ach": 419,
      "uc": 420,
      "Ġran": 421,
      "arn": 422,
      "ĠF": 423,
      "ĠJ": 424,
      "ile": 425,
      "ie": 426,
      "Ġagain": 427,
      "Ġhouse": 428,
      "Ġsome": 429,
      "dd": 430,
      "ave": 431,
      "Ġlaug": 432,
      "Ġdown": 433,
      "Ġfl": 434,
      "king": 435,
      "Ġscared": 436,
      "ure": 437,
      "ny": 438,
      "Ġtook": 439,
      "Ġpr": 440,
      "ick": 441,
      "if": 442,
      "Ġbox": 443,
      "Ġlearn": 444,
      "ĠYou": 445,
      "Ġwill": 446,
      "Ġaround": 447,
      "ep": 448,
      "Ġtoys": 449,
      "ab": 450,
      "Ġthings": 451,
      "ret": 452,
      "Ġbl": 453,
      "Ġmy": 454,
      "Ġyour": 455,
      "uck": 456,
      "oud": 457,
      "Ġlived": 458,
      "Ġwhen": 459,
      "Ġsun": 460,
      "ish": 461,
      "Ġfe": 462,
      "Ġsw": 463,
      "Ġthen": 464,
      ",\"": 465,
      "as": 466,
      "Ġch": 467,
      "pped": 468,
      "Ġab": 469,
      "us": 470,
      "ĠMia": 471,
      "ank": 472,
      "Ġget": 473,
      "Tim": 474,
      "Ġlot": 475,
      "oth": 476,
      "ap": 477,
      "ump": 478,
      "Th": 479,
      "ucy": 480,
      "ist": 481,
      "Ġtried": 482,
      "Ġknow": 483,
      "Ġsays": 484,
      "Ġgot": 485,
      "ited": 486,
      "ust": 487,
      "Ġkne": 488,
      "Ġwho": 489,
      "Ġmany": 490,
      "nder": 491,
      "Ġabout": 492,
      "Lily": 493,
      "Ġint": 494,
      "Ġpret": 495,
      "Ġany": 496,
      "Ġdec": 497,
      "ĠD": 498,
      "Ġred": 499,
      "ise": 500,
      "ive": 501,
      "Ġknew": 502,
      "ace": 503,
      "ous": 504,
      "Ġmore": 505,
      "Ġpic": 506,
      "ally": 507,
      "qu": 508,
      "Ġhug": 509,
      "Ġpo": 510,
      "Ġcare": 511,
      "au": 512,
      "fter": 513,
      "Ġlearned": 514,
      "Ġwater": 515,
      "Ġbest": 516,
      "Ġv": 517,
      "Ġbecame": 518,
      "ĠLucy": 519,
      "Ġexc": 520,
      "ways": 521,
      "urp": 522,
      "Ġop": 523,
      "ause": 524,
      "Ġoutside": 525,
      "Ġgre": 526,
      "Ġalways": 527,
      "Ġshow": 528,
      "Ġlaughed": 529,
      "Ġlook": 530,
      "Ġdecid": 531,
      "ĠBob": 532,
      "Ġroom": 533,
      "ite": 534,
      "Ġun": 535,
      "Ġdecided": 536,
      "Ġbecause": 537,
      "Ġeat": 538,
      "ĠSo": 539,
      "Ġho": 540,
      "Ġboth": 541,
      "fe": 542,
      "ĠAnd": 543,
      "Ġinto": 544,
      "ant": 545,
      "Ġjump": 546,
      "ĠMom": 547,
      "udd": 548,
      "ers": 549,
      "Ġdad": 550,
      "Ġpe": 551,
      "Ġke": 552,
      "Ġone": 553,
      "nn": 554,
      "They": 555,
      "Ġexcited": 556,
      "Ġthis": 557,
      "Ġnice": 558,
      "Ġfeel": 559,
      "Ġlong": 560,
      "Ġfast": 561,
      "ĠE": 562,
      "Ġrun": 563,
      "Yes": 564,
      "Tom": 565,
      "Ġsk": 566,
      "Ġam": 567,
      "Ġtold": 568,
      "urpr": 569,
      "our": 570,
      "Ġtr": 571,
      "Ġinside": 572,
      "Ġsurpr": 573,
      "ink": 574,
      "Ġmo": 575,
      "ull": 576,
      "iny": 577,
      "Ġpretty": 578,
      "Ġsor": 579,
      "Ġtake": 580,
      "Ġgra": 581,
      "Wh": 582,
      "nna": 583,
      "Ġsl": 584,
      "lew": 585,
      "og": 586,
      "Ġeach": 587,
      "Ġgave": 588,
      "Ġmuch": 589,
      "Ġstr": 590,
      "imal": 591,
      "Ġrock": 592,
      "Ġhow": 593,
      "Ġanimal": 594,
      "ged": 595,
      "Ġneed": 596,
      "But": 597,
      "Ġor": 598,
      "Ġtow": 599,
      "etter": 600,
      "Ġthan": 601,
      "ara": 602,
      "ven": 603,
      "Ġunder": 604,
      "Ġold": 605,
      "ĠC": 606,
      "Ġsorry": 607,
      "ge": 608,
      "ess": 609,
      "ised": 610,
      "ro": 611,
      "urt": 612,
      "Ġwalked": 613,
      "and": 614,
      "Ġcle": 615,
      "Ġfish": 616,
      "Ġhand": 617,
      "Ġclo": 618,
      "Ġbear": 619,
      "ast": 620,
      "ft": 621,
      "ase": 622,
      "Ġte": 623,
      "Ġjust": 624,
      "urn": 625,
      "Ġkind": 626,
      "here": 627,
      "ĠWe": 628,
      "ĠHis": 629,
      "pl": 630,
      "Ġdidn": 631,
      "Ġflow": 632,
      "Ġhappened": 633,
      "Ġwat": 634,
      "Ġide": 635,
      "Ġtry": 636,
      "Ġfood": 637,
      "Ġanimals": 638,
      "Ġlist": 639,
      "Ġsky": 640,
      "Ġhig": 641,
      "Ġsn": 642,
      "rom": 643,
      "ff": 644,
      "Ġfi": 645,
      "Ġnear": 646,
      "ine": 647,
      "ched": 648,
      "ving": 649,
      "Ġidea": 650,
      "Ġus": 651,
      "ĠAmy": 652,
      "Ġbetter": 653,
      "Ġbug": 654,
      "Ġtw": 655,
      "Ġheard": 656,
      "Ġits": 657,
      "Ġlet": 658,
      "gry": 659,
      "Ġen": 660,
      "ate": 661,
      "able": 662,
      "Ġshare": 663,
      "pec": 664,
      "Ġstor": 665,
      "Ġif": 666,
      "Thank": 667,
      "ĠTh": 668,
      "ex": 669,
      "Ġfly": 670,
      "Mom": 671,
      "ial": 672,
      "Ġflew": 673,
      "Ġcareful": 674,
      "lf": 675,
      "more": 676,
      "Ġanymore": 677,
      "Ġspec": 678,
      "Ġspecial": 679,
      "Ġlots": 680,
      "Ġdan": 681,
      "Ġcom": 682,
      "Ġnever": 683,
      "ion": 684,
      "Ġby": 685,
      "Ġfo": 686,
      "Ġdon": 687,
      "Ġwind": 688,
      "ream": 689,
      "Ġtal": 690,
      "Ġclean": 691,
      "Ġend": 692,
      "Ġlove": 693,
      "Ġgr": 694,
      "Ġbu": 695,
      "ĠThen": 696,
      "Ġfore": 697,
      "udden": 698,
      "Ġeven": 699,
      "Ġshiny": 700,
      "ber": 701,
      "rm": 702,
      "Ġover": 703,
      "ort": 704,
      "ople": 705,
      "Ġcake": 706,
      "Ġmag": 707,
      "Ġhard": 708,
      "ak": 709,
      "uddenly": 710,
      "Ġcol": 711,
      "ĠAnna": 712,
      "Ġbook": 713,
      "Ġturn": 714,
      "imb": 715,
      "Ġbad": 716,
      "Ġfam": 717,
      "Ġsafe": 718,
      "Ġafter": 719,
      "ĠEvery": 720,
      "Ġclimb": 721,
      "Let": 722,
      "ady": 723,
      "Ġcu": 724,
      "Ġhigh": 725,
      "Ġdoor": 726,
      "Ġhurt": 727,
      "Ġcome": 728,
      "Ġgl": 729,
      "Ġground": 730,
      "Ġproud": 731,
      "Ġsurprised": 732,
      "pected": 733,
      "Ġpicked": 734,
      "Ġpeople": 735,
      "'m": 736,
      "arden": 737,
      "Ġgarden": 738,
      "Ġopened": 739,
      "bb": 740,
      "Ġche": 741,
      "ild": 742,
      "expected": 743,
      "Ġunexpected": 744,
      "Ġloud": 745,
      "Ġway": 746,
      "Ġim": 747,
      "Ġblue": 748,
      "Ġgive": 749,
      "As": 750,
      "Ġstill": 751,
      "ĠFrom": 752,
      "Ġever": 753,
      "Ġhugged": 754,
      "Ġcolor": 755,
      "Ġthanked": 756,
      "ĠHer": 757,
      "ail": 758,
      "Ġfar": 759,
      "Ġcall": 760,
      "ip": 761,
      "ummy": 762,
      "No": 763,
      "ĠWhen": 764,
      "uff": 765,
      "iz": 766,
      "Ġoff": 767,
      "ĠK": 768,
      "ough": 769,
      "Ġmagic": 770,
      "Ġjumped": 771,
      "ĠSara": 772,
      "age": 773,
      "Ġkid": 774,
      "Ġfamily": 775,
      "Ġpar": 776,
      "Ġsmile": 777,
      "Ġshould": 778,
      "kay": 779,
      "ool": 780,
      "Ġwalk": 781,
      "Ġqu": 782,
      "les": 783,
      "ture": 784,
      "ĠIn": 785,
      "hes": 786,
      "Ġplace": 787,
      "Ġnow": 788,
      "Ġforest": 789,
      "Ġstay": 790,
      "ct": 791,
      "em": 792,
      "ane": 793,
      "Ġgreat": 794,
      "aut": 795,
      "Ġunt": 796,
      "Ġsto": 797,
      "Ġstrong": 798,
      "itty": 799,
      "ĠP": 800,
      "Ġbro": 801,
      "Ġbeaut": 802,
      "Ġuntil": 803,
      "Ġstick": 804,
      "Ġbra": 805,
      "ning": 806,
      "dy": 807,
      "Ġsqu": 808,
      "xt": 809,
      "Ġnext": 810,
      "lease": 811,
      "oon": 812,
      "Ġhappily": 813,
      "Ġfrog": 814,
      "Ġkids": 815,
      "aking": 816,
      "unny": 817,
      "oy": 818,
      "iful": 819,
      "Ġbeautiful": 820,
      "th": 821,
      "ies": 822,
      "Ġapp": 823,
      "Ġshowed": 824,
      "Ġlisten": 825,
      "Ġstory": 826,
      "Ġwhile": 827,
      "Ġboat": 828,
      "Ġclos": 829,
      "Ġhelped": 830,
      "Ġpicture": 831,
      "be": 832,
      "Ġtown": 833,
      "rel": 834,
      "Ġdra": 835,
      "Ġimp": 836,
      "Ġrain": 837,
      "Ġtra": 838,
      "Ġbeing": 839,
      "pt": 840,
      "Ġeveryone": 841,
      "ress": 842,
      "ary": 843,
      "ree": 844,
      "It": 845,
      "Ġad": 846,
      "Ġmor": 847,
      "uffy": 848,
      "Ġmet": 849,
      "Ġcalled": 850,
      "Ġstopped": 851,
      "Ġhat": 852,
      "Now": 853,
      "Can": 854,
      "Ġwo": 855,
      "Ġrem": 856,
      "Ġyummy": 857,
      "Ġgame": 858,
      "He": 859,
      "Ġopen": 860,
      "by": 861,
      "Ġtruck": 862,
      "Ġcry": 863,
      "When": 864,
      "Ġsoft": 865,
      "Ġbed": 866,
      "Ġmouse": 867,
      "vent": 868,
      "Ġangry": 869,
      "Ġkeep": 870,
      "ĠSally": 871,
      "Ġwatch": 872,
      "ĠLet": 873,
      "ger": 874,
      "Ġate": 875,
      "ĠKitty": 876,
      "Ġcouldn": 877,
      "Ġdoll": 878,
      "ĠWh": 879,
      "Ġwarm": 880,
      "Ġbrave": 881,
      "Ġde": 882,
      "so": 883,
      "ĠR": 884,
      "fore": 885,
      "Ġlost": 886,
      "dded": 887,
      "Ġfell": 888,
      "Ġalso": 889,
      "ished": 890,
      "Ġface": 891,
      "Ġleave": 892,
      "ble": 893,
      "Ġnoise": 894,
      "Ġtwo": 895,
      "bit": 896,
      "luffy": 897,
      "Ġgreen": 898,
      "Ġwhere": 899,
      "abbit": 900,
      "Ġflowers": 901,
      "What": 902,
      "gan": 903,
      "ock": 904,
      "owl": 905,
      "irst": 906,
      "iss": 907,
      "Ġsoon": 908,
      "self": 909,
      "Ġrabbit": 910,
      "az": 911,
      "Ġslide": 912,
      "Ġpus": 913,
      "illy": 914,
      "irrel": 915,
      "Ġhear": 916,
      "Ġhands": 917,
      "Ġbefore": 918,
      "Ġexpl": 919,
      "Ġsat": 920,
      "Ġpain": 921,
      "Ġsquirrel": 922,
      "ired": 923,
      "Ġhole": 924,
      "Ġnodded": 925,
      "Then": 926,
      "Look": 927,
      "Ġkept": 928,
      "Hi": 929,
      "Ġpa": 930,
      "ma": 931,
      "ear": 932,
      "That": 933,
      "ĠFluffy": 934,
      "Ġstore": 935,
      "Ġuse": 936,
      "Ġcook": 937,
      "Ġgoing": 938,
      "Ġbirds": 939,
      "day": 940,
      "Ġfunny": 941,
      "Ġey": 942,
      "Ġhaving": 943,
      "leep": 944,
      "Ġsing": 945,
      "Ġbunny": 946,
      "Ġfix": 947,
      "Ġcatch": 948,
      "aybe": 949,
      "Ben": 950,
      "Ġbre": 951,
      "Ġfin": 952,
      "aug": 953,
      "aught": 954,
      "ange": 955,
      "Ġthink": 956,
      "uit": 957,
      "Ġcra": 958,
      "Ġwork": 959,
      "Ġwr": 960,
      "uch": 961,
      "Ġlooking": 962,
      "Ġour": 963,
      "Ġused": 964,
      "Ġtired": 965,
      "Ġyell": 966,
      "ĠCan": 967,
      "Ġmean": 968,
      "Ġhas": 969,
      "thing": 970,
      "Ġpond": 971,
      "Ġjo": 972,
      "Ġkit": 973,
      "Ġsunny": 974,
      "We": 975,
      "Ġthr": 976,
      "ĠNow": 977,
      "Ġbus": 978,
      "ĠG": 979,
      "air": 980,
      "Ġwait": 981,
      "Ġpull": 982,
      "Ġbeh": 983,
      "led": 984,
      "Ġothers": 985,
      "chen": 986,
      "Ġkitchen": 987,
      "Ġsound": 988,
      "Ġask": 989,
      "joy": 990,
      "Ġtalk": 991,
      "ting": 992,
      "Ġflo": 993,
      "rew": 994,
      "ng": 995,
      "Ġhead": 996,
      "Ġmommy": 997,
      "ember": 998,
      "Ġeyes": 999,
      "Ġfirst": 1000,
      "Ġfav": 1001,
      "Ġtri": 1002,
      "ĠJo": 1003,
      "Ġpie": 1004,
      "Ġright": 1005,
      "Ġcon": 1006,
      "Ġflower": 1007,
      "Ġmess": 1008,
      "Ġdif": 1009,
      "Ġdr": 1010,
      "Ġreal": 1011,
      "orn": 1012,
      "Hell": 1013,
      "Hello": 1014,
      "Ġvo": 1015,
      "ĠJack": 1016,
      "Ġsand": 1017,
      "Ġduck": 1018,
      "Ġcuri": 1019,
      "Ġenjoy": 1020,
      "imes": 1021,
      "Ġadvent": 1022,
      "Ġz": 1023,
      "eet": 1024,
      "zy": 1025,
      "Ġmon": 1026,
      "Ġparty": 1027,
      "ious": 1028,
      "ath": 1029,
      "Ġcold": 1030,
      "ĠDo": 1031,
      "Ġimport": 1032,
      "Ġbright": 1033,
      "Ġremember": 1034,
      "Ġshared": 1035,
      "Ġokay": 1036,
      "Ġmoral": 1037,
      "Ġcurious": 1038,
      "Ġrace": 1039,
      "llow": 1040,
      "Ġhop": 1041,
      "Ġhill": 1042,
      "At": 1043,
      "Ġworked": 1044,
      "Ġyard": 1045,
      "Ġsleep": 1046,
      "Ġmaking": 1047,
      "reed": 1048,
      "Ġimportant": 1049,
      "ac": 1050,
      "Ġtall": 1051,
      "Ġdir": 1052,
      "Ġthing": 1053,
      "ount": 1054,
      "Ġcla": 1055,
      "Ġfavor": 1056,
      "Ġhid": 1057,
      "Ġfavorite": 1058,
      "Ġbegan": 1059,
      "Ġown": 1060,
      "Ġhere": 1061,
      "Ġbag": 1062,
      "lly": 1063,
      "Ġdis": 1064,
      "Don": 1065,
      "Ġdress": 1066,
      "aper": 1067,
      "Wow": 1068,
      "que": 1069,
      "Ġdraw": 1070,
      "ĠFin": 1071,
      "Ġrest": 1072,
      "ster": 1073,
      "Ġblock": 1074,
      "Ġfollow": 1075,
      "Ġwatched": 1076,
      "Ġsurprise": 1077,
      "Ġice": 1078,
      "Ġbel": 1079,
      "Ġtell": 1080,
      "Ġagreed": 1081,
      "ect": 1082,
      "hn": 1083,
      "Ġnight": 1084,
      "Ġmove": 1085,
      "Ġgrass": 1086,
      "Ġcut": 1087,
      "co": 1088,
      "Ġtrees": 1089,
      "Ġpick": 1090,
      "Ġhot": 1091,
      "Ġri": 1092,
      "Ġhun": 1093,
      "Ġdark": 1094,
      "Ġwalking": 1095,
      "Ġbehind": 1096,
      "ĠThis": 1097,
      "Ġru": 1098,
      "ied": 1099,
      "Ġworry": 1100,
      "Ġvoice": 1101,
      "Ġtable": 1102,
      "Ġstop": 1103,
      "Ġfloor": 1104,
      "ĠDad": 1105,
      "Ġsho": 1106,
      "Ġfarm": 1107,
      "Ġforg": 1108,
      "Ġtop": 1109,
      "After": 1110,
      "Ġplease": 1111,
      "isy": 1112,
      "Ġcolors": 1113,
      "Ġsong": 1114,
      "Max": 1115,
      "Ġsweet": 1116,
      "Ġlady": 1117,
      "Ġread": 1118,
      "Ġleaves": 1119,
      "Ġtail": 1120,
      "Ġlion": 1121,
      "Ġshout": 1122,
      "fere": 1123,
      "Ġcloser": 1124,
      "aring": 1125,
      "Ġdiffere": 1126,
      "ign": 1127,
      "Ġpaper": 1128,
      "Ġadventure": 1129,
      "Ġneeded": 1130,
      "Ġtast": 1131,
      "Ġturned": 1132,
      "Ġdoes": 1133,
      "Ġcars": 1134,
      "ĠSuddenly": 1135,
      "Ġfeeling": 1136,
      "Ġdel": 1137,
      "ĠMr": 1138,
      "Anna": 1139,
      "Ġwood": 1140,
      "ered": 1141,
      "Why": 1142,
      "Ġcried": 1143,
      "Ġpiece": 1144,
      "Ġswing": 1145,
      "Ġfull": 1146,
      "Sue": 1147,
      "Ġfire": 1148,
      "Ġprin": 1149,
      "Ġdifferent": 1150,
      "Ġlaugh": 1151,
      "Ġbutter": 1152,
      "Ġhungry": 1153,
      "bo": 1154,
      "ken": 1155,
      "ĠAs": 1156,
      "Ġfriendly": 1157,
      "Ġwet": 1158,
      "Ġfruit": 1159,
      "Ġyellow": 1160,
      "Ġroll": 1161,
      "Ġcr": 1162,
      "oom": 1163,
      "Ġbroken": 1164,
      "Ġtouch": 1165,
      "ient": 1166,
      "ĠThat": 1167,
      "Ġclimbed": 1168,
      "ater": 1169,
      "Ġdance": 1170,
      "ike": 1171,
      "Ġper": 1172,
      "ached": 1173,
      "cked": 1174,
      "Sam": 1175,
      "Ġprom": 1176,
      "Ġhair": 1177,
      "Ġrunning": 1178,
      "Ġlight": 1179,
      "bye": 1180,
      "Ġanother": 1181,
      "ppy": 1182,
      "Ġlistened": 1183,
      "Ġdanc": 1184,
      "where": 1185,
      "Ġplan": 1186,
      "Ġready": 1187,
      "ĠJane": 1188,
      "Ġpretend": 1189,
      "Ġswim": 1190,
      "ĠBobo": 1191,
      "Ġonly": 1192,
      "bbed": 1193,
      "Ġblocks": 1194,
      "Suddenly": 1195,
      "Ġgone": 1196,
      "She": 1197,
      "Ġsmell": 1198,
      "Ġwonder": 1199,
      "Ġamaz": 1200,
      "Ġclose": 1201,
      "Ġant": 1202,
      "ins": 1203,
      "av": 1204,
      "ndma": 1205,
      "Ġhold": 1206,
      "Ġrepl": 1207,
      "Ġpu": 1208,
      "ĠAll": 1209,
      "sh": 1210,
      "So": 1211,
      "Ġglad": 1212,
      "Ġhelping": 1213,
      "Ġreached": 1214,
      "Ġsees": 1215,
      "Sara": 1216,
      "aby": 1217,
      "iced": 1218,
      "Ġslow": 1219,
      "red": 1220,
      "Ġbeen": 1221,
      "Ġwall": 1222,
      "Ġgoodbye": 1223,
      "Ġcool": 1224,
      "Ġdri": 1225,
      "Ġar": 1226,
      "Ġpushed": 1227,
      "Mia": 1228,
      "Ġfight": 1229,
      "oney": 1230,
      "ather": 1231,
      "Ġexplore": 1232,
      "Ġwindow": 1233,
      "af": 1234,
      "Ġmoment": 1235,
      "Ġless": 1236,
      "Ġstuck": 1237,
      "ĠTimmy": 1238,
      "ĠO": 1239,
      "Ġac": 1240,
      "ila": 1241,
      "ĠEveryone": 1242,
      "Ġtrying": 1243,
      "icy": 1244,
      "Ġste": 1245,
      "Ġhide": 1246,
      "Ġsnow": 1247,
      "Ġsit": 1248,
      "Ġmight": 1249,
      "Ġname": 1250,
      "Ġbit": 1251,
      "Ġcream": 1252,
      "Ġchild": 1253,
      "Ġmust": 1254,
      "Ġwag": 1255,
      "aisy": 1256,
      "Ġquick": 1257,
      "Ġdone": 1258,
      "Ġcoming": 1259,
      "Ġapple": 1260,
      "ized": 1261,
      "'re": 1262,
      "Ġheld": 1263,
      "Ġfair": 1264,
      "Ġbar": 1265,
      "key": 1266,
      "Ġbaby": 1267,
      "Ġperf": 1268,
      "Ġthank": 1269,
      "Ġunderst": 1270,
      "Ġbuy": 1271,
      "Ġdirty": 1272,
      "Ġbutterf": 1273,
      "Ġdin": 1274,
      "Ġfall": 1275,
      "Ġwished": 1276,
      "Ġscary": 1277,
      "Ġlooks": 1278,
      "Ġdream": 1279,
      "Ġdoing": 1280,
      "In": 1281,
      "Ġbuild": 1282,
      "Ġowl": 1283,
      "Ġair": 1284,
      "Ġballoon": 1285,
      "Ġleft": 1286,
      "Ġdro": 1287,
      "ott": 1288,
      "ames": 1289,
      "Ġbooks": 1290,
      "Ġwise": 1291,
      "Ġtrain": 1292,
      "Ġreach": 1293,
      "Ġclapped": 1294,
      "Ġthrough": 1295,
      "Ġreplied": 1296,
      "Ġwhy": 1297,
      "Ġcloud": 1298,
      "Ġthree": 1299,
      "Ġpink": 1300,
      "Ġsure": 1301,
      "Ġshouted": 1302,
      "Ġcount": 1303,
      "Ġcup": 1304,
      "avy": 1305,
      "Ġtiny": 1306,
      "Ġgrow": 1307,
      "Ġmar": 1308,
      "Ġbran": 1309,
      "Ġwin": 1310,
      "ely": 1311,
      "Ġsometimes": 1312,
      "Ġseen": 1313,
      "amp": 1314,
      "Ġchair": 1315,
      "Ġmat": 1316,
      "andy": 1317,
      "ield": 1318,
      "Ġtreat": 1319,
      "ash": 1320,
      "Ġbrother": 1321,
      "Ġpaint": 1322,
      "Ġpulled": 1323,
      "ix": 1324,
      "Ġland": 1325,
      "Ġspl": 1326,
      "Ġwoods": 1327,
      "ask": 1328,
      "Ġjoin": 1329,
      "Ġve": 1330,
      "Okay": 1331,
      "Ġfill": 1332,
      "outh": 1333,
      "Ġnest": 1334,
      "Ġgrabbed": 1335,
      "ĠAfter": 1336,
      "Ġjob": 1337,
      "uddy": 1338,
      "Ġmouth": 1339,
      "pe": 1340,
      "Ġcre": 1341,
      "art": 1342,
      "Ġstayed": 1343,
      "Ġcont": 1344,
      "Ġwaved": 1345,
      "Ġcolorful": 1346,
      "ph": 1347,
      "Ġplant": 1348,
      "Ġenjoyed": 1349,
      "ower": 1350,
      "Ġcast": 1351,
      "This": 1352,
      "Ġremembered": 1353,
      "Oh": 1354,
      "oup": 1355,
      "ĠThere": 1356,
      "Ġblew": 1357,
      "ĠMommy": 1358,
      "ds": 1359,
      "Ġwaited": 1360,
      "Ġnoticed": 1361,
      "Ġbigger": 1362,
      "Ġquickly": 1363,
      "Ġlesson": 1364,
      "room": 1365,
      "Ġset": 1366,
      "Ġlikes": 1367,
      "ries": 1368,
      "der": 1369,
      "Ġbutterfly": 1370,
      "Ġgames": 1371,
      "cle": 1372,
      "de": 1373,
      "Ġclot": 1374,
      "Ġalone": 1375,
      "Ġhopped": 1376,
      "Ġbroke": 1377,
      "ation": 1378,
      "Ġclothes": 1379,
      "Ġpictures": 1380,
      "Ġanything": 1381,
      "Ġgent": 1382,
      "Jo": 1383,
      "Ġbott": 1384,
      "Ġheavy": 1385,
      "Ġpot": 1386,
      "Ġgif": 1387,
      "ucky": 1388,
      "Ġpen": 1389,
      "Ġworld": 1390,
      "Ġyear": 1391,
      "Ġpat": 1392,
      "Ġtight": 1393,
      "ton": 1394,
      "Ġspot": 1395,
      "man": 1396,
      "Ġmiss": 1397,
      "Ġturns": 1398,
      "asure": 1399,
      "Ġmix": 1400,
      "lc": 1401,
      "Ġsea": 1402,
      "Ġmus": 1403,
      "Ġtower": 1404,
      "Ġthrew": 1405,
      "Ġhimself": 1406,
      "row": 1407,
      "Ġarm": 1408,
      "Ġje": 1409,
      "Ġju": 1410,
      "ĠBuddy": 1411,
      "Her": 1412,
      "Ġwhite": 1413,
      "Ġswam": 1414,
      "Ġeverywhere": 1415,
      "Lucy": 1416,
      "ĠDaisy": 1417,
      "olly": 1418,
      "less": 1419,
      "orm": 1420,
      "\".": 1421,
      "Ġkey": 1422,
      "ape": 1423,
      "Ġcomp": 1424,
      "Bob": 1425,
      "Ġblack": 1426,
      "Ġwon": 1427,
      "thy": 1428,
      "Ġfollowed": 1429,
      "Ġmakes": 1430,
      "Ġbike": 1431,
      "ĠWhat": 1432,
      "ctor": 1433,
      "Ġwrong": 1434,
      "Ġdelic": 1435,
      "Ġcastle": 1436,
      "Ġpol": 1437,
      "ner": 1438,
      "Ġbreak": 1439,
      "Ġmonster": 1440,
      "ued": 1441,
      "iet": 1442,
      "Ġforgot": 1443,
      "oun": 1444,
      "cess": 1445,
      "ee": 1446,
      "Spot": 1447,
      "Ġem": 1448,
      "Ġdeep": 1449,
      "Ġquiet": 1450,
      "Do": 1451,
      "arent": 1452,
      "Ġride": 1453,
      "Ġwear": 1454,
      "Ġround": 1455,
      "ister": 1456,
      "Ġmusic": 1457,
      "Ġhit": 1458,
      "Ġparent": 1459,
      "Ġbee": 1460,
      "Ġdanced": 1461,
      "Ġnap": 1462,
      "Ġwants": 1463,
      "Ġstu": 1464,
      "Ġvis": 1465,
      "ves": 1466,
      "rot": 1467,
      "ully": 1468,
      "ance": 1469,
      "Ġunderstand": 1470,
      "Ġdry": 1471,
      "ang": 1472,
      "Ġtalked": 1473,
      "Ġbor": 1474,
      "os": 1475,
      "zz": 1476,
      "ts": 1477,
      "From": 1478,
      "Ġmum": 1479,
      "Ġcookies": 1480,
      "fully": 1481,
      "ren": 1482,
      "Ġside": 1483,
      "ross": 1484,
      "Ġrel": 1485,
      "Ġleaf": 1486,
      "Ġleg": 1487,
      "Ġsmart": 1488,
      "Ġres": 1489,
      "Ġbrought": 1490,
      "ence": 1491,
      "Ġpoin": 1492,
      "ĠInside": 1493,
      "Ġsister": 1494,
      "Ġfaster": 1495,
      "ĠJohn": 1496,
      "Ġsec": 1497,
      "Ġque": 1498,
      "Ġsign": 1499,
      "Ġcontin": 1500,
      "Ġsharing": 1501,
      "itten": 1502,
      "Ġhappen": 1503,
      "Ġbowl": 1504,
      "Ġrocks": 1505,
      "cy": 1506,
      "Ġflying": 1507,
      "Ġreally": 1508,
      "ards": 1509,
      "Ġbutton": 1510,
      "Ġsomeone": 1511,
      "Ġfox": 1512,
      "Ġwell": 1513,
      "Ġfinished": 1514,
      "Ġdinner": 1515,
      "Ġworried": 1516,
      "ĠTo": 1517,
      "Ġbranch": 1518,
      "ĠMaybe": 1519,
      "His": 1520,
      "Ġsilly": 1521,
      "Ġgu": 1522,
      "Ġvisit": 1523,
      "Ġsecret": 1524,
      "Ġel": 1525,
      "gy": 1526,
      "ĠJoe": 1527,
      "Ġtoday": 1528,
      "Ġbeach": 1529,
      "Ġpig": 1530,
      "eddy": 1531,
      "Ġgi": 1532,
      "Ġear": 1533,
      "Ġdanger": 1534,
      "Ġele": 1535,
      "Ġsmiles": 1536,
      "Ġelse": 1537,
      "Ġeverything": 1538,
      "Ġeating": 1539,
      "Ġorange": 1540,
      "Ġfilled": 1541,
      "ĠSoon": 1542,
      "Ġ-": 1543,
      "Ġking": 1544,
      "Ġcontinued": 1545,
      "Ġperfect": 1546,
      "Ġspr": 1547,
      "ĠAt": 1548,
      "Ġfield": 1549,
      "ipp": 1550,
      "Ġwelc": 1551,
      "Ġwish": 1552,
      "Ġchildren": 1553,
      "ĠSarah": 1554,
      "Ġbite": 1555,
      "Ġblank": 1556,
      "ĠEm": 1557,
      "ses": 1558,
      "ze": 1559,
      "Ġfree": 1560,
      "Ġpudd": 1561,
      "Ġsang": 1562,
      "Ġriver": 1563,
      "Ġshin": 1564,
      "ated": 1565,
      "Ġsnack": 1566,
      "Ġblanket": 1567,
      "Ġrealized": 1568,
      "Ġpromised": 1569,
      "imi": 1570,
      "Ġjar": 1571,
      "John": 1572,
      "ead": 1573,
      "Ġcarefully": 1574,
      "Ġpieces": 1575,
      "While": 1576,
      "Ġfur": 1577,
      "Ġmud": 1578,
      "Maybe": 1579,
      "Ġsnake": 1580,
      "Ġparents": 1581,
      "Ġbath": 1582,
      "itting": 1583,
      "Ġmonkey": 1584,
      "Ġcrying": 1585,
      "Ġpurp": 1586,
      "stead": 1587,
      "ĠLila": 1588,
      "Ġsail": 1589,
      "Ġyes": 1590,
      "cket": 1591,
      "Ġboun": 1592,
      "Ġlaughing": 1593,
      "Just": 1594,
      "Ġbrown": 1595,
      "Ġcow": 1596,
      "Ġamazing": 1597,
      "Amy": 1598,
      "Ġpurple": 1599,
      "Ġdrink": 1600,
      "Ġgrandma": 1601,
      "Ġwords": 1602,
      "Ġrolled": 1603,
      "Ġgift": 1604,
      "Ġpet": 1605,
      "Ġbottle": 1606,
      "Ġbarked": 1607,
      "Fin": 1608,
      "Ġdrag": 1609,
      "Ġenough": 1610,
      "Ġthrow": 1611,
      "Ġlon": 1612,
      "ises": 1613,
      "ich": 1614,
      "ĠZ": 1615,
      "Ġwithout": 1616,
      "ire": 1617,
      "ĠBilly": 1618,
      "used": 1619,
      "Ġlonely": 1620,
      "ased": 1621,
      "Ġdoctor": 1622,
      "Ġcrab": 1623,
      "Ġsoup": 1624,
      "Ġasks": 1625,
      "Ġpast": 1626,
      "Ġshop": 1627,
      "Ġmoved": 1628,
      "Ġwhe": 1629,
      "ord": 1630,
      "Ġmorning": 1631,
      "Ġcandy": 1632,
      "Ġapples": 1633,
      "chool": 1634,
      "Ġlake": 1635,
      "unch": 1636,
      "Ġdangerous": 1637,
      "ale": 1638,
      "ey": 1639,
      "Ġclosed": 1640,
      "Ġshoes": 1641,
      "Ġwagged": 1642,
      "ons": 1643,
      "ĠBl": 1644,
      "Ġwelcome": 1645,
      "ub": 1646,
      "Ġsitting": 1647,
      "fort": 1648,
      "ible": 1649,
      "althy": 1650,
      "ere": 1651,
      "Ġschool": 1652,
      "Ġliving": 1653,
      "Ġatt": 1654,
      "ĠGra": 1655,
      "Ġstrange": 1656,
      "Ġpaw": 1657,
      "Ġmoney": 1658,
      "Ġtreasure": 1659,
      "Ġcreat": 1660,
      "gg": 1661,
      "Ġpre": 1662,
      "iver": 1663,
      "Ġchee": 1664,
      "ass": 1665,
      "Ġhigher": 1666,
      "Ġsmo": 1667,
      "Ġfairy": 1668,
      "ush": 1669,
      "Ġmail": 1670,
      "Ġruns": 1671,
      "ĠMimi": 1672,
      "fish": 1673,
      "Ġgetting": 1674,
      "Ġph": 1675,
      "vel": 1676,
      "Ġowner": 1677,
      "board": 1678,
      "Ġstre": 1679,
      "Ġmad": 1680,
      "Mommy": 1681,
      "me": 1682,
      "ĠTommy": 1683,
      "Ġletter": 1684,
      "Ġroad": 1685,
      "Ġshining": 1686,
      "Ġegg": 1687,
      "Ġfarmer": 1688,
      "'ll": 1689,
      "una": 1690,
      "Ġtalking": 1691,
      "Ġcaught": 1692,
      "itch": 1693,
      "Ġpass": 1694,
      "asket": 1695,
      "Ġdelicious": 1696,
      "Ġpill": 1697,
      "Ġwings": 1698,
      "app": 1699,
      "Ġbasket": 1700,
      "Ġbring": 1701,
      "cks": 1702,
      "Ġstand": 1703,
      "arm": 1704,
      "Ġmother": 1705,
      "Ġyears": 1706,
      "Ġthinks": 1707,
      "Ġbuck": 1708,
      "emy": 1709,
      "Ġbelie": 1710,
      "set": 1711,
      "ol": 1712,
      "ĠCh": 1713,
      "Ġsame": 1714,
      "Ġpush": 1715,
      "Ġstone": 1716,
      "Ġnose": 1717,
      "igh": 1718,
      "Ġpuddle": 1719,
      "Ġwhist": 1720,
      "Ġcoat": 1721,
      "Ġbat": 1722,
      "Ġcoll": 1723,
      "Ġswings": 1724,
      "isk": 1725,
      "Ġfinally": 1726,
      "Ġstart": 1727,
      "Ġtom": 1728,
      "up": 1729,
      "Ġteddy": 1730,
      "Ġscream": 1731,
      "ches": 1732,
      "Ġhor": 1733,
      "Ġdays": 1734,
      "Ġsear": 1735,
      "Ġmine": 1736,
      "Ġdragon": 1737,
      "Ġtasty": 1738,
      "igg": 1739,
      "Ġwore": 1740,
      "Ġherself": 1741,
      "Ġhoped": 1742,
      "Ġkite": 1743,
      "ined": 1744,
      "Ġdropped": 1745,
      "Ġra": 1746,
      "Ġarri": 1747,
      "ĠJen": 1748,
      "sw": 1749,
      "Ġgentle": 1750,
      "Ġsinging": 1751,
      "bow": 1752,
      "Ġfan": 1753,
      "Ġansw": 1754,
      "ella": 1755,
      "Please": 1756,
      "Ġcray": 1757,
      "Ġtrou": 1758,
      "Ġcho": 1759,
      "Ġcarrot": 1760,
      "eb": 1761,
      "Ġbow": 1762,
      "iskers": 1763,
      "Ġteach": 1764,
      "Ġtwins": 1765,
      "OK": 1766,
      "Ġbush": 1767,
      "Ġsack": 1768,
      "erry": 1769,
      "Ġfit": 1770,
      "Ġwoke": 1771,
      "sy": 1772,
      "Ġshap": 1773,
      "Ġteac": 1774,
      "Ġbelong": 1775,
      "Ġvill": 1776,
      "ipped": 1777,
      "Ġseem": 1778,
      "ier": 1779,
      "Ġpuppy": 1780,
      "Ġseed": 1781,
      "Ġspoon": 1782,
      "ract": 1783,
      "phant": 1784,
      "Ġpers": 1785,
      "ĠBlue": 1786,
      "Ġben": 1787,
      "Ġcheered": 1788,
      "Ġcute": 1789,
      "Ġrainbow": 1790,
      "Ġjuice": 1791,
      "Ġcour": 1792,
      "Jack": 1793,
      "Ġgrew": 1794,
      "aughty": 1795,
      "Ġcheese": 1796,
      "Ġfence": 1797,
      "Ġbread": 1798,
      "llie": 1799,
      "Ġnaughty": 1800,
      "fused": 1801,
      "sc": 1802,
      "Ġtouc": 1803,
      "Ġmin": 1804,
      "ama": 1805,
      "Ġshook": 1806,
      "Ġlunch": 1807,
      "irth": 1808,
      "Ġshell": 1809,
      "irthday": 1810,
      "Ġhiding": 1811,
      "Ġplane": 1812,
      "Ġcourse": 1813,
      "Ġelephant": 1814,
      "Ġwonderful": 1815,
      "Ġshapes": 1816,
      "Ġpile": 1817,
      "Ġarrived": 1818,
      "Good": 1819,
      "Ġjoy": 1820,
      "Ġforever": 1821,
      "Ġspin": 1822,
      "Ġrope": 1823,
      "Ġinc": 1824,
      "Ġbell": 1825,
      "Ġcorn": 1826,
      "Ġable": 1827,
      "Ġstreet": 1828,
      "idge": 1829,
      "ĠRemy": 1830,
      "Ġtouched": 1831,
      "Ġpromise": 1832,
      "ball": 1833,
      "Ġheart": 1834,
      "Ġvillage": 1835,
      "Ġshake": 1836,
      "ĠThank": 1837,
      "Ġeas": 1838,
      "Ġprob": 1839,
      "Ġbugs": 1840,
      "Ġpop": 1841,
      "Ġteacher": 1842,
      "Ġneck": 1843,
      "Ġmost": 1844,
      "ĠWhiskers": 1845,
      "Ġbirthday": 1846,
      "Ġbusy": 1847,
      "Ġrob": 1848,
      "Ġwar": 1849,
      "Finally": 1850,
      "Ġspo": 1851,
      "Ġband": 1852,
      "Ġshy": 1853,
      "Ġdes": 1854,
      "lem": 1855,
      "ĠEmma": 1856,
      "Ġfew": 1857,
      "Ġnut": 1858,
      "Ġdolls": 1859,
      "col": 1860,
      "Ġproblem": 1861,
      "br": 1862,
      "Ġcave": 1863,
      "Ġpower": 1864,
      "ato": 1865,
      "Ġbench": 1866,
      "Ġstorm": 1867,
      "ĠFred": 1868,
      "Ġpatient": 1869,
      "Ġcarry": 1870,
      "ilk": 1871,
      "Ġsounds": 1872,
      "lla": 1873,
      "irt": 1874,
      "isa": 1875,
      "Ġtowards": 1876,
      "Ġmilk": 1877,
      "Ġbelieve": 1878,
      "Ġkiss": 1879,
      "unt": 1880,
      "Ġpocket": 1881,
      "Ġholding": 1882,
      "Ġfeels": 1883,
      "adow": 1884,
      "umb": 1885,
      "Ġwra": 1886,
      "Ġshr": 1887,
      "Ġlate": 1888,
      "ost": 1889,
      "Ġspark": 1890,
      "Ġrobot": 1891,
      "Ġcir": 1892,
      "Ġmeet": 1893,
      "arp": 1894,
      "Ġdist": 1895,
      "urtle": 1896,
      "Ġnoises": 1897,
      "Ġupset": 1898,
      "Ġlive": 1899,
      "gly": 1900,
      "Ġstories": 1901,
      "Ġhelpful": 1902,
      "eter": 1903,
      "eared": 1904,
      "ator": 1905,
      "ourn": 1906,
      "Ġgray": 1907,
      "ian": 1908,
      "Ġob": 1909,
      "Ġjourn": 1910,
      "Ġrec": 1911,
      "Ġtreats": 1912,
      "Ġfold": 1913,
      "ling": 1914,
      "ountain": 1915,
      "Ġsharp": 1916,
      "Ġcover": 1917,
      "read": 1918,
      "ĠLe": 1919,
      "Ġslowly": 1920,
      "Ġdisapp": 1921,
      "Ġpuzz": 1922,
      "Ġhoney": 1923,
      "Ġdi": 1924,
      "alm": 1925,
      "Ġdirt": 1926,
      "Ġyoung": 1927,
      "irp": 1928,
      "Ġballs": 1929,
      "ĠBella": 1930,
      "Ġmagical": 1931,
      "Ġugly": 1932,
      "oggy": 1933,
      "Ġcloth": 1934,
      "Ġamazed": 1935,
      "Ġprincess": 1936,
      "umpy": 1937,
      "Ġglow": 1938,
      "epend": 1939,
      "Ġseat": 1940,
      "Ġhugs": 1941,
      "Ġsandw": 1942,
      "Ġwild": 1943,
      "Ġdriver": 1944,
      "Ġturtle": 1945,
      "Ġhorse": 1946,
      "Ġstring": 1947,
      "Ġsuc": 1948,
      "umber": 1949,
      "Ġpillow": 1950,
      "Ġcoin": 1951,
      "Ġstars": 1952,
      "Ġspicy": 1953,
      "Ġtrip": 1954,
      "iling": 1955,
      "pping": 1956,
      "oose": 1957,
      "Ġsplas": 1958,
      "Ġmist": 1959,
      "Ġmark": 1960,
      "Ġwide": 1961,
      "Ġnet": 1962,
      "Ġseek": 1963,
      "Ġinv": 1964,
      "Ġkitten": 1965,
      "fortable": 1966,
      "Ġlucky": 1967,
      "Ġzoom": 1968,
      "Ġcraw": 1969,
      "Ġdrove": 1970,
      "Ġrude": 1971,
      "Ġsug": 1972,
      "Ġtaking": 1973,
      "Ġorgan": 1974,
      "Ġbucket": 1975,
      "Ġspid": 1976,
      "ung": 1977,
      "Ġfighting": 1978,
      "Ġgiant": 1979,
      "Sure": 1980,
      "Ġwhistle": 1981,
      "Ġpart": 1982,
      "Ġinstead": 1983,
      "Ġhuge": 1984,
      "ĠJim": 1985,
      "ove": 1986,
      "ular": 1987,
      "Ġca": 1988,
      "Ġwheel": 1989,
      "Be": 1990,
      "ens": 1991,
      "Later": 1992,
      "ors": 1993,
      "Ġsick": 1994,
      "ĠMark": 1995,
      "Ġbone": 1996,
      "pper": 1997,
      "Ġfixed": 1998,
      "ĠFinally": 1999,
      "Ġmach": 2000,
      "Hey": 2001,
      "Ġcard": 2002,
      "aur": 2003,
      "Ġtaste": 2004,
      "Ġcookie": 2005,
      "Of": 2006,
      "Ġsal": 2007,
      "Ġchased": 2008,
      "est": 2009,
      "Ġboss": 2010,
      "lower": 2011,
      "ĠAnn": 2012,
      "Ġcann": 2013,
      "ĠCome": 2014,
      "Ġducks": 2015,
      "Ġbri": 2016,
      "Ġlem": 2017,
      "Ġwrite": 2018,
      "ĠJust": 2019,
      "Ġshelf": 2020,
      "Ġmoon": 2021,
      "den": 2022,
      "Ġcannot": 2023,
      "Ġforget": 2024,
      "ĠOn": 2025,
      "Ġsnowman": 2026,
      "Ġwave": 2027,
      "oph": 2028,
      "Ġsongs": 2029,
      "Ġbark": 2030,
      "Ġbubb": 2031,
      "Ġsel": 2032,
      "Ġhidden": 2033,
      "Ġconfused": 2034,
      "Ġphone": 2035,
      "Ġser": 2036,
      "Ġfoot": 2037,
      "Ġpeace": 2038,
      "Ġtea": 2039,
      "Ġstepped": 2040,
      "Ġjoke": 2041,
      "Ġdaddy": 2042,
      "Ġadventures": 2043,
      "Ġcomes": 2044,
      "ize": 2045,
      "Ġdrive": 2046,
      "Ġchick": 2047,
      "Ġoven": 2048,
      "Ġgrab": 2049,
      "Lila": 2050,
      "Ġsuddenly": 2051,
      "Ġwasn": 2052,
      "Ġlast": 2053,
      "Ġthin": 2054,
      "ert": 2055,
      "ĠLeo": 2056,
      "ĠBu": 2057,
      "ĠLisa": 2058,
      "Ġlife": 2059,
      "Ġfle": 2060,
      "Ġselfish": 2061,
      "Ġlanded": 2062,
      "elly": 2063,
      "ose": 2064,
      "ĠGrandma": 2065,
      "Ġfruits": 2066,
      "Ġcou": 2067,
      "Ġspider": 2068,
      "erest": 2069,
      "Ġtie": 2070,
      "Ġcart": 2071,
      "Ġsheep": 2072,
      "Ġlater": 2073,
      "to": 2074,
      "Ġbeak": 2075,
      "Ġce": 2076,
      "Ġring": 2077,
      "Ġpath": 2078,
      "Ġsour": 2079,
      "Ġchange": 2080,
      "St": 2081,
      "Ġinterest": 2082,
      "Ġash": 2083,
      "Ġval": 2084,
      "Ġworm": 2085,
      "Ġsmooth": 2086,
      "ĠCat": 2087,
      "Ġjog": 2088,
      "Ġgrumpy": 2089,
      "ĠDaddy": 2090,
      "Ġban": 2091,
      "Ġmissed": 2092,
      "Ġdrew": 2093,
      "Ġpan": 2094,
      "Ġrad": 2095,
      "ĠMolly": 2096,
      "pty": 2097,
      "To": 2098,
      "Ġbought": 2099,
      "Ġwash": 2100,
      "Ġempty": 2101,
      "Ġacross": 2102,
      "ĠN": 2103,
      "ever": 2104,
      "Ġmachine": 2105,
      "Ġlegs": 2106,
      "Ġexp": 2107,
      "Ġclouds": 2108,
      "Ġspe": 2109,
      "Ġmyster": 2110,
      "Ġslid": 2111,
      "Ġwolf": 2112,
      "Ġav": 2113,
      "Ġwatching": 2114,
      "Ġgrate": 2115,
      "Ġent": 2116,
      "ope": 2117,
      "ife": 2118,
      "Ġsleepy": 2119,
      "Ġtakes": 2120,
      "ery": 2121,
      "Ġstep": 2122,
      "Ġpuzzle": 2123,
      "eth": 2124,
      "Ġsticks": 2125,
      "ity": 2126,
      "pect": 2127,
      "Ġhealthy": 2128,
      "izz": 2129,
      "izzy": 2130,
      "Ġcalm": 2131,
      "Ġspray": 2132,
      "Ġimag": 2133,
      "ĠMomo": 2134,
      "Ġsmelly": 2135,
      "Ġgrateful": 2136,
      "erly": 2137,
      "Ġclever": 2138,
      "Ġmessy": 2139,
      "ĠLuna": 2140,
      "Ġfil": 2141,
      "iger": 2142,
      "ained": 2143,
      "Ġfing": 2144,
      "mer": 2145,
      "Ġseemed": 2146,
      "stion": 2147,
      "Ġlift": 2148,
      "kin": 2149,
      "Ġpour": 2150,
      "dge": 2151,
      "Ġmed": 2152,
      "Ġlay": 2153,
      "let": 2154,
      "Ġmot": 2155,
      "ĠJill": 2156,
      "Ġbanan": 2157,
      "Ġthough": 2158,
      "Ġfinish": 2159,
      "oop": 2160,
      "ugg": 2161,
      "Ġign": 2162,
      "Ġact": 2163,
      "unk": 2164,
      "amed": 2165,
      "Ġworking": 2166,
      "yard": 2167,
      "Ġhope": 2168,
      "llo": 2169,
      "box": 2170,
      "wel": 2171,
      "Soon": 2172,
      "ork": 2173,
      "Ġbackyard": 2174,
      "Ġjelly": 2175,
      "Ġwhole": 2176,
      "Ġinteresting": 2177,
      "Ġrocket": 2178,
      "oc": 2179,
      "ward": 2180,
      "Ġalong": 2181,
      "Ġprot": 2182,
      "ĠJerry": 2183,
      "Ġpin": 2184,
      "bar": 2185,
      "Ġplate": 2186,
      "Ġsave": 2187,
      "Ġlad": 2188,
      "Ġnothing": 2189,
      "Ġfaces": 2190,
      "Ġfake": 2191,
      "Ġeasy": 2192,
      "Ġanyone": 2193,
      "Ġtid": 2194,
      "Ġjewel": 2195,
      "ĠBunny": 2196,
      "Come": 2197,
      "ming": 2198,
      "Ġlonger": 2199,
      "Ġquestion": 2200,
      "Ġba": 2201,
      "Ġline": 2202,
      "Ġdogs": 2203,
      "oomy": 2204,
      "Ġqueen": 2205,
      "Ġsmelled": 2206,
      "ont": 2207,
      "ars": 2208,
      "ĠDoggy": 2209,
      "upp": 2210,
      "ocked": 2211,
      "Ġyog": 2212,
      "Ġscar": 2213,
      "rass": 2214,
      "iting": 2215,
      "Ġpract": 2216,
      "barrass": 2217,
      "Ġsplash": 2218,
      "Ġforgive": 2219,
      "Ġembarrass": 2220,
      "Ġarms": 2221,
      "Ġtrouble": 2222,
      "Ġbossy": 2223,
      "Ġsol": 2224,
      "Ġwondered": 2225,
      "Ġladder": 2226,
      "Ġexplor": 2227,
      "Ġsupp": 2228,
      "Ġchew": 2229,
      "Ġneigh": 2230,
      "ĠBe": 2231,
      "irpy": 2232,
      "ĠWith": 2233,
      "Ġfront": 2234,
      "ment": 2235,
      "ult": 2236,
      "arge": 2237,
      "Ġgives": 2238,
      "Ġzoo": 2239,
      "Ġfeather": 2240,
      "Ġmaybe": 2241,
      "Ġjumping": 2242,
      "aughter": 2243,
      "Ġtidy": 2244,
      "Ġweak": 2245,
      "Ġmind": 2246,
      "Ġlemon": 2247,
      "Ġsaved": 2248,
      "ĠOllie": 2249,
      "Ġonto": 2250,
      "Ġneighb": 2251,
      "Ġcross": 2252,
      "ado": 2253,
      "Ġshirt": 2254,
      "Ġgently": 2255,
      "irr": 2256,
      "Ġkick": 2257,
      "Ġsur": 2258,
      "ually": 2259,
      "ones": 2260,
      "Ġlovely": 2261,
      "orrow": 2262,
      "Ġship": 2263,
      "Ġcheer": 2264,
      "Ġplaces": 2265,
      "Ġaf": 2266,
      "Ġmistake": 2267,
      "sp": 2268,
      "Ġsuch": 2269,
      "Ġants": 2270,
      "Ġwing": 2271,
      "Ġbal": 2272,
      "Ġcrayons": 2273,
      "Ġlarge": 2274,
      "ĠMary": 2275,
      "Ġwaiting": 2276,
      "Ġdeer": 2277,
      "Ġclown": 2278,
      "Ġswimming": 2279,
      "ned": 2280,
      "And": 2281,
      "Ġputs": 2282,
      "oof": 2283,
      "Ġpointed": 2284,
      "ipe": 2285,
      "Sally": 2286,
      "Ġdaughter": 2287,
      "Ġlazy": 2288,
      "Ġperson": 2289,
      "Ġcleaned": 2290,
      "onest": 2291,
      "ĠTheir": 2292,
      "Ġpizz": 2293,
      "Ġpack": 2294,
      "Ġboring": 2295,
      "Ġstood": 2296,
      "era": 2297,
      "raid": 2298,
      "My": 2299,
      "Ġdrum": 2300,
      "Ġafraid": 2301,
      "Ġret": 2302,
      "ĠWhy": 2303,
      "Ġmap": 2304,
      "Ġhum": 2305,
      "Ġcozy": 2306,
      "Ġtomorrow": 2307,
      "Kitty": 2308,
      "Ġhonest": 2309,
      "Ġpool": 2310,
      "ĠMy": 2311,
      "ina": 2312,
      "Ġloves": 2313,
      "Ġtrue": 2314,
      "Ġpizza": 2315,
      "ĠChirpy": 2316,
      "Ġbuilding": 2317,
      "ĠTV": 2318,
      "Ġreturn": 2319,
      "gest": 2320,
      "Ġpretended": 2321,
      "Ġbounce": 2322,
      "Ġeag": 2323,
      "Ġteeth": 2324,
      "Ġsearch": 2325,
      "Ġfancy": 2326,
      "aced": 2327,
      "Ġnearby": 2328,
      "ĠSomet": 2329,
      "Ġplants": 2330,
      "Ġprince": 2331,
      "oman": 2332,
      "Ġgather": 2333,
      "Ġsandwich": 2334,
      "Ġsplashed": 2335,
      "Ġscarf": 2336,
      "ĠIf": 2337,
      "Ġdish": 2338,
      "Ġwoman": 2339,
      "Ġgoes": 2340,
      "icked": 2341,
      "ek": 2342,
      "ĠGo": 2343,
      "Ġmatch": 2344,
      "Ġanswer": 2345,
      "Ġlaw": 2346,
      "Ġvan": 2347,
      "Ġimpress": 2348,
      "Ġscreamed": 2349,
      "Ġwearing": 2350,
      "Ġfear": 2351,
      "urse": 2352,
      "ĠBobby": 2353,
      "Ġappeared": 2354,
      "ĠTogether": 2355,
      "ute": 2356,
      "aw": 2357,
      "Ġsnee": 2358,
      "Ġmotor": 2359,
      "Ġrub": 2360,
      "Ġlock": 2361,
      "Ġrich": 2362,
      "Ġhello": 2363,
      "Ġtest": 2364,
      "ĠPlease": 2365,
      "Ġfurry": 2366,
      "Ġicy": 2367,
      "rag": 2368,
      "Ġchase": 2369,
      "Ġstra": 2370,
      "Ġpri": 2371,
      "Ġstret": 2372,
      "Ġpowerful": 2373,
      "Ġjourney": 2374,
      "Ġsuccess": 2375,
      "elp": 2376,
      "Ġcreative": 2377,
      "Ġtrust": 2378,
      "Ġashamed": 2379,
      "Ġcouch": 2380,
      "Ġboot": 2381,
      "uce": 2382,
      "Ġcand": 2383,
      "Ġsold": 2384,
      "Ġmatter": 2385,
      "mb": 2386,
      "oppy": 2387,
      "Ġnumber": 2388,
      "Stop": 2389,
      "Ġhang": 2390,
      "Ġhero": 2391,
      "Ġsoap": 2392,
      "Ġnoisy": 2393,
      "itter": 2394,
      "vous": 2395,
      "ĠSt": 2396,
      "Ġcircle": 2397,
      "Ġsmiling": 2398,
      "osaur": 2399,
      "Ġgun": 2400,
      "Ġglue": 2401,
      "Ġshadow": 2402,
      "Ġrare": 2403,
      "Ġdig": 2404,
      "Ġbean": 2405,
      "Ġsaf": 2406,
      "pa": 2407,
      "irror": 2408,
      "Ġreg": 2409,
      "Ġgen": 2410,
      "Ġcarried": 2411,
      "Ġnote": 2412,
      "ĠDon": 2413,
      "Ġchocol": 2414,
      "Ġprint": 2415,
      "Ġdinosaur": 2416,
      "Ġtries": 2417,
      "nic": 2418,
      "Ġner": 2419,
      "Ġap": 2420,
      "Ġmirror": 2421,
      "iff": 2422,
      "Ġcap": 2423,
      "Ġgate": 2424,
      "Ġpicnic": 2425,
      "Ġnervous": 2426,
      "Ġtool": 2427,
      "Ġprotect": 2428,
      "Ġpoor": 2429,
      "Ġpolite": 2430,
      "Ġclass": 2431,
      "Ġeld": 2432,
      "Ġgold": 2433,
      "Ġknee": 2434,
      "ĠHow": 2435,
      "Help": 2436,
      "Ġshark": 2437,
      "Ġclap": 2438,
      "ĠSp": 2439,
      "Ġembarrassed": 2440,
      "Ġtele": 2441,
      "isp": 2442,
      "ual": 2443,
      "Ġhur": 2444,
      "Ġflag": 2445,
      "Ġdancing": 2446,
      "obe": 2447,
      "Ġdisco": 2448,
      "Ġwis": 2449,
      "Ġkicked": 2450,
      "Ġpres": 2451,
      "ĠBenny": 2452,
      "Ġchocolate": 2453,
      "ĠBird": 2454,
      "Ġrelie": 2455,
      "Ġdrank": 2456,
      "scape": 2457,
      "Ġballoons": 2458,
      "Ġpeaceful": 2459,
      "Ġsque": 2460,
      "Ġlamp": 2461,
      "Ġthese": 2462,
      "Ġfeet": 2463,
      "Ġclock": 2464,
      "Ġpainted": 2465,
      "Ġwand": 2466,
      "Ġtowel": 2467,
      "Ġcloset": 2468,
      "Ġgigg": 2469,
      "Ġlead": 2470,
      "Ġmel": 2471,
      "ensive": 2472,
      "Ġelderly": 2473,
      "Ġrespect": 2474,
      "Ġcri": 2475,
      "Ġexpensive": 2476,
      "Ġbridge": 2477,
      "Ġstir": 2478,
      "Ġbecome": 2479,
      "Ġcrown": 2480,
      "Ġbald": 2481,
      "imp": 2482,
      "Ġgener": 2483,
      "robe": 2484,
      "Ġwhisp": 2485,
      "Ġ'": 2486,
      "Ġfat": 2487,
      "ragile": 2488,
      "Ġbake": 2489,
      "Ġglass": 2490,
      "Ġhar": 2491,
      "Ġbrush": 2492,
      "Ġmarch": 2493,
      "ndpa": 2494,
      "Ġtick": 2495,
      "Ġspread": 2496,
      "Ġsugar": 2497,
      "Ġsco": 2498,
      "issors": 2499,
      "Ġthick": 2500,
      "ĠSometimes": 2501,
      "Ġknocked": 2502,
      "Ġmixed": 2503,
      "Ġcorner": 2504,
      "arl": 2505,
      "owed": 2506,
      "Ġtent": 2507,
      "Ġlog": 2508,
      "ym": 2509,
      "ĠTiny": 2510,
      "Ġdizzy": 2511,
      "Ġwhale": 2512,
      "Ġmysterious": 2513,
      "Ġteam": 2514,
      "Ġpay": 2515,
      "ote": 2516,
      "Tommy": 2517,
      "ventually": 2518,
      "Ġchicken": 2519,
      "Dad": 2520,
      "Ġdecor": 2521,
      "Ġfragile": 2522,
      "Ġpump": 2523,
      "Ġmighty": 2524,
      "Ġtape": 2525,
      "Ġwouldn": 2526,
      "lebr": 2527,
      "Ġword": 2528,
      "Ġ3": 2529,
      "bborn": 2530,
      "Ġscare": 2531,
      "Ġsock": 2532,
      "Ġpray": 2533,
      "Ġtasted": 2534,
      "Ġlose": 2535,
      "Ġcage": 2536,
      "ĠBr": 2537,
      "Ġadm": 2538,
      "Ġyelled": 2539,
      "Ġgenerous": 2540,
      "Ġscissors": 2541,
      "Ġcelebr": 2542,
      "lves": 2543,
      "ced": 2544,
      "Ġdrawing": 2545,
      "Ġincred": 2546,
      "Ġbarn": 2547,
      "Ġgroup": 2548,
      "any": 2549,
      "Ġboard": 2550,
      "Ġfamous": 2551,
      "Ġclear": 2552,
      "Ġter": 2553,
      "Ġvase": 2554,
      "ustr": 2555,
      "Ġstubborn": 2556,
      "Ġjet": 2557,
      "Ġbalance": 2558,
      "ĠBear": 2559,
      "Ġfeed": 2560,
      "Ġrough": 2561,
      "Ġrose": 2562,
      "Ġincredible": 2563,
      "Ġterri": 2564,
      "Ġweird": 2565,
      "Ġorganized": 2566,
      "lace": 2567,
      "ness": 2568,
      "Ġblow": 2569,
      "ser": 2570,
      "Ġmic": 2571,
      "Ġfrustr": 2572,
      "ĠTr": 2573,
      "asp": 2574,
      "Ġmoms": 2575,
      "Ġbranches": 2576,
      "Ġyarn": 2577,
      "Ġnecklace": 2578,
      "Ġhorn": 2579,
      "ĠSome": 2580,
      "Ġspace": 2581,
      "Ġmis": 2582,
      "Ġrelieved": 2583,
      "Ġpresent": 2584,
      "Ġtaught": 2585,
      "Ġmountain": 2586,
      "Ġclay": 2587,
      "getable": 2588,
      "Ġwrap": 2589,
      "Ġvegetable": 2590,
      "ony": 2591,
      "Ġignor": 2592,
      "alous": 2593,
      "Ġnorm": 2594,
      "Ġswan": 2595,
      "Ġwhich": 2596,
      "Ġjealous": 2597,
      "ighed": 2598,
      "Ġcreature": 2599,
      "Ġber": 2600,
      "Ġnormal": 2601,
      "Ġberries": 2602,
      "Ġunus": 2603,
      "Ġguess": 2604,
      "dle": 2605,
      "Ġfrustrated": 2606,
      "airs": 2607,
      "Ġunusual": 2608,
      "Ġfright": 2609,
      "Ġexploring": 2610,
      "Ġunderstood": 2611,
      "alk": 2612,
      "Ġtwist": 2613,
      "Ġhose": 2614,
      "Ġwake": 2615,
      "fic": 2616,
      "Ġhears": 2617,
      "Ġdiscover": 2618,
      "kn": 2619,
      "Ġdiffic": 2620,
      "cient": 2621,
      "Ġfine": 2622,
      "port": 2623,
      "ĠMama": 2624,
      "Ġsell": 2625,
      "Ġwagon": 2626,
      "Ġfool": 2627,
      "Ġfier": 2628,
      "Ġsunf": 2629,
      "Ġsquare": 2630,
      "Ġcab": 2631,
      "Ġwashed": 2632,
      "Ġfierce": 2633,
      "Ġburn": 2634,
      "Ġeggs": 2635,
      "Ġdifficult": 2636,
      "Where": 2637,
      "Ġcomfortable": 2638,
      "Ġwrote": 2639,
      "Ġgloomy": 2640,
      "Ġancient": 2641,
      "Ġdug": 2642,
      "known": 2643,
      "orry": 2644,
      "Ġstuff": 2645,
      "bby": 2646,
      "Ġbloom": 2647,
      "ique": 2648,
      "Ġterrible": 2649,
      "Ġpolice": 2650,
      "Ġfrightened": 2651,
      "Ġbitter": 2652,
      "Ġcher": 2653,
      "ray": 2654,
      "Ġspent": 2655,
      "Ġord": 2656,
      "ond": 2657,
      "Ġdead": 2658,
      "Ġcats": 2659,
      "Ġspoiled": 2660,
      "Together": 2661,
      "Ġunknown": 2662,
      "Ġunique": 2663,
      "ume": 2664,
      "Ġsword": 2665,
      "Ġwaves": 2666,
      "xible": 2667,
      "Ġcabin": 2668,
      "Ġadd": 2669,
      "Ġunl": 2670,
      "yal": 2671,
      "live": 2672,
      "Ġfinding": 2673,
      "Ġmeasure": 2674,
      "Ġcone": 2675,
      "Ġroar": 2676,
      "Ġmov": 2677,
      "Ġcrazy": 2678,
      "ĠPe": 2679,
      "Ġtells": 2680,
      "Ġfoolish": 2681,
      "und": 2682,
      "Ġnosy": 2683,
      "Ġtoug": 2684,
      "Ġbreath": 2685,
      "Ġstraw": 2686,
      "Ġgoat": 2687,
      "Ġtiger": 2688,
      "Ġdull": 2689,
      "Ġstat": 2690,
      "Ġfinger": 2691,
      "Ġending": 2692,
      "shine": 2693,
      "Ġtough": 2694,
      "Ġind": 2695,
      "Ġwitch": 2696,
      "Ġpotato": 2697,
      "Ġbathroom": 2698,
      "Ġcovered": 2699,
      "Ġtomato": 2700,
      "Ġexam": 2701,
      "apped": 2702,
      "Ġthankful": 2703,
      "Ġchest": 2704,
      "Ġdove": 2705,
      "corn": 2706,
      "Ġdrop": 2707,
      "cil": 2708,
      "reen": 2709,
      "Ġloyal": 2710,
      "anged": 2711,
      "Ġcollect": 2712,
      "Ġclum": 2713,
      "Ġvalue": 2714,
      "erp": 2715,
      "Ġstri": 2716,
      "Ġpaws": 2717,
      "Ġtoast": 2718,
      "Ġwaff": 2719,
      "Ġjoined": 2720,
      "Ġsearched": 2721,
      "ĠAl": 2722,
      "Ġmeal": 2723,
      "Ġdelicate": 2724,
      "Ġlab": 2725,
      "ĠDucky": 2726,
      "Ġpencil": 2727,
      "Ġflexible": 2728,
      "Ġpumpkin": 2729,
      "Ġmuff": 2730,
      "Ġstamp": 2731,
      "Ġclumsy": 2732,
      "Ġpir": 2733,
      "Ġham": 2734,
      "ĠRex": 2735,
      "Ġsunshine": 2736,
      "berry": 2737,
      "Ġuseful": 2738,
      "Every": 2739,
      "Ġbubbles": 2740,
      "iant": 2741,
      "Ġdisg": 2742,
      "ĠBrown": 2743,
      "Ġyours": 2744,
      "Ġexciting": 2745,
      "Here": 2746,
      "Ġadventur": 2747,
      "Ġasking": 2748,
      "Ġstatue": 2749,
      "Ġhay": 2750,
      "Jim": 2751,
      "Ġexplained": 2752,
      "Ġpopcorn": 2753,
      "Ġmask": 2754,
      "Ġwealthy": 2755,
      "Ġadventurous": 2756,
      "Ġbanana": 2757,
      "Ġsunflower": 2758,
      "Ġjam": 2759,
      "Ġsalad": 2760,
      "inky": 2761,
      "Ġyourself": 2762,
      "Ġmoving": 2763,
      "Ġrelax": 2764,
      "selves": 2765,
      "Ġtrick": 2766,
      "ory": 2767,
      "Ġhairy": 2768,
      "Ġseeds": 2769,
      "Ġsolve": 2770,
      "ground": 2771,
      "Ġdepend": 2772,
      "Ġaunt": 2773,
      "Ġthirst": 2774,
      "Ġshore": 2775,
      "Ġpepper": 2776,
      "Me": 2777,
      "Ġbored": 2778,
      "Ġdisgust": 2779,
      "light": 2780,
      "Ġcro": 2781,
      "Ġnods": 2782,
      "umpet": 2783,
      "com": 2784,
      "Ġbody": 2785,
      "ĠWill": 2786,
      "ĠElla": 2787,
      "Ġtrumpet": 2788,
      "Ġjeep": 2789,
      "Ġchanged": 2790,
      "ĠAndy": 2791,
      "Mum": 2792,
      "Ġfig": 2793,
      "Ġknife": 2794,
      "ĠJimmy": 2795,
      "Ġrat": 2796,
      "mbre": 2797,
      "Ġparrot": 2798,
      "Ġumbre": 2799,
      "ying": 2800,
      "Ġjolly": 2801,
      "Ġthirsty": 2802,
      "Ġstones": 2803,
      "Ġcaterp": 2804,
      "Ġcaterpill": 2805,
      "Ġshoot": 2806,
      "bled": 2807,
      "Who": 2808,
      "gu": 2809,
      "lliant": 2810,
      "ĠMany": 2811,
      "Ġfrown": 2812,
      "iddle": 2813,
      "ates": 2814,
      "Ġbrilliant": 2815,
      "Ġasleep": 2816,
      "Ġzip": 2817,
      "Ġdisgusting": 2818,
      "Ġshoe": 2819,
      "Ġmole": 2820,
      "Ġnuts": 2821,
      "Ġmedic": 2822,
      "pes": 2823,
      "anut": 2824,
      "ĠWhile": 2825,
      "Ġtimes": 2826,
      "ĠTw": 2827,
      "Ġharm": 2828,
      "Ġhats": 2829,
      "Ġneighbor": 2830,
      "Ġdependable": 2831,
      "Ġknowing": 2832,
      "Ġavoc": 2833,
      "Ġsquee": 2834,
      "fted": 2835,
      "Ġboats": 2836,
      "Ġmedicine": 2837,
      "ict": 2838,
      "Ġeng": 2839,
      "ti": 2840,
      "Ġcries": 2841,
      "unn": 2842,
      "ungle": 2843,
      "ilt": 2844,
      "Ġshiver": 2845,
      "ĠInstead": 2846,
      "lph": 2847,
      "land": 2848,
      "Ġstage": 2849,
      "Ġfearful": 2850,
      "ĠYour": 2851,
      "Ġmarket": 2852,
      "Ġeager": 2853,
      "Ġobed": 2854,
      "ĠU": 2855,
      "ident": 2856,
      "Ġflute": 2857,
      "Ġarrow": 2858,
      "Ġjungle": 2859,
      "If": 2860,
      "Ġenorm": 2861,
      "Ġenormous": 2862,
      "Ġsmaller": 2863,
      "Ġcareless": 2864,
      "Ġpainting": 2865,
      "Ġacorn": 2866,
      "Ġpige": 2867,
      "Ġfour": 2868,
      "Ġmiddle": 2869,
      "aken": 2870,
      "het": 2871,
      "Ġdough": 2872,
      "Ġref": 2873,
      "Ġcaterpillar": 2874,
      "Ġsnacks": 2875,
      "met": 2876,
      "Ġremind": 2877,
      "Ġdolph": 2878,
      "How": 2879,
      "Ġgem": 2880,
      "Ġobedient": 2881,
      "ĠNo": 2882,
      "Inside": 2883,
      "ants": 2884,
      "Ġimpressive": 2885,
      "Ġstove": 2886,
      "Ġhelmet": 2887,
      "Ġcheap": 2888,
      "iness": 2889,
      "aghet": 2890,
      "aghetti": 2891,
      "Ġindepend": 2892,
      "Sorry": 2893,
      "inal": 2894,
      "Ġchoose": 2895,
      "Ġshine": 2896,
      "Ġcube": 2897,
      "Ġbottom": 2898,
      "Ġorig": 2899,
      "Ġcounted": 2900,
      "Ġspaghetti": 2901,
      "Ġmagn": 2902,
      "Ġfilthy": 2903,
      "pid": 2904,
      "Ġtaken": 2905,
      "Ġlow": 2906,
      "Ġscr": 2907,
      "Ġflash": 2908,
      "Ġbedroom": 2909,
      "most": 2910,
      "Ġescape": 2911,
      "Ġsuit": 2912,
      "Ġheal": 2913,
      "ĠTrue": 2914,
      "stal": 2915,
      "Ġperform": 2916,
      "Ġindependent": 2917,
      "Ġcam": 2918,
      "Ġfridge": 2919,
      "Ġspring": 2920,
      "Ġsighed": 2921,
      "Ġstupid": 2922,
      "Ġtooth": 2923,
      "Ġdesign": 2924,
      "Ġvegetables": 2925,
      "Ġoriginal": 2926,
      "Ġalmost": 2927,
      "Ġhouses": 2928,
      "Ġer": 2929,
      "Ġtriang": 2930,
      "Ġslipped": 2931,
      "Ġserious": 2932,
      "Ġgum": 2933,
      "Ġumbrella": 2934,
      "axi": 2935,
      "Ġrecord": 2936,
      "Ġtor": 2937,
      "Ġlean": 2938,
      "enny": 2939,
      "erable": 2940,
      "Ġmiserable": 2941,
      "Are": 2942,
      "Ġgoose": 2943,
      "ours": 2944,
      "dile": 2945,
      "Ġisland": 2946,
      "codile": 2947,
      "Ġspotted": 2948,
      "iable": 2949,
      "Ġguit": 2950,
      "Ġcrayon": 2951,
      "Ġcarrots": 2952,
      "Ġbelonged": 2953,
      "Ġfork": 2954,
      "Ġtwig": 2955,
      "Ġdest": 2956,
      "Ġfis": 2957,
      "Ġshows": 2958,
      "Ġborrow": 2959,
      "Ġmelon": 2960,
      "Ġmovie": 2961,
      "Ġengine": 2962,
      "Ġcheerful": 2963,
      "Ġtaxi": 2964,
      "asses": 2965,
      "Ġmoder": 2966,
      "Ġstudy": 2967,
      "Molly": 2968,
      "Ġcere": 2969,
      "Ġsuccessful": 2970,
      "Ġhoop": 2971,
      "Ġgar": 2972,
      "Ġgets": 2973,
      "Ġpants": 2974,
      "Ġlifted": 2975,
      "Ġcost": 2976,
      "Ġcrystal": 2977,
      "berries": 2978,
      "Ġtied": 2979,
      "Ġbuilt": 2980,
      "Ġraced": 2981,
      "There": 2982,
      "Ġmodern": 2983,
      "Ġquar": 2984,
      "Ġbelt": 2985,
      "Ġcrocodile": 2986,
      "Ġprize": 2987,
      "Ġcop": 2988,
      "Ġguitar": 2989,
      "amond": 2990,
      "urkey": 2991,
      "Ġrh": 2992,
      "Ġhopping": 2993,
      "Ġmailbox": 2994,
      "Ġcereal": 2995,
      "oto": 2996,
      "Ġbatter": 2997,
      "Ġcrawled": 2998,
      "Ġcollar": 2999,
      "Ġtorn": 3000,
      "Ġcompet": 3001,
      "host": 3002,
      "Ġdiamond": 3003,
      "Ġfigure": 3004,
      "Ġhammer": 3005,
      "oin": 3006,
      "als": 3007,
      "atch": 3008,
      "Ġturkey": 3009,
      "Ġwip": 3010,
      "Ġpeanut": 3011,
      "Ġruined": 3012,
      "cles": 3013,
      "Ġonion": 3014,
      "Ġneeds": 3015,
      "Ġrug": 3016,
      "Ġquarrel": 3017,
      "inary": 3018,
      "Ġsil": 3019,
      "Ġthoughtful": 3020,
      "Ġsteal": 3021,
      "Ġpopular": 3022,
      "Ġmagnet": 3023,
      "Ġsauce": 3024,
      "ĠSn": 3025,
      "Ġswe": 3026,
      "Ġghost": 3027,
      "Ġcharm": 3028,
      "Ġhumble": 3029,
      "aser": 3030,
      "Ġneedle": 3031,
      "io": 3032,
      "Ġinvited": 3033,
      "xious": 3034,
      "Ġfountain": 3035,
      "Ġanxious": 3036,
      "Ġpassed": 3037,
      "Ġoce": 3038,
      "Ġocean": 3039,
      "Ġmeant": 3040,
      "Ġcandle": 3041,
      "Ġpicks": 3042,
      "Ġsmoke": 3043,
      "Ġreliable": 3044,
      "Ġkissed": 3045,
      "Ġjug": 3046,
      "Ġwander": 3047,
      "Ġtricks": 3048,
      "Ġcamera": 3049,
      "Jane": 3050,
      "Ġplayful": 3051,
      "Ġscale": 3052,
      "Ġwheat": 3053,
      "appy": 3054,
      "zed": 3055,
      "Ġdisappoin": 3056,
      "Ġgarage": 3057,
      "Ġones": 3058,
      "Ġavocado": 3059,
      "Ġsink": 3060,
      "Ġstanding": 3061,
      "edy": 3062,
      "Ġpress": 3063,
      "Ġcomb": 3064,
      "Ġloll": 3065,
      "ages": 3066,
      "Ġhurts": 3067,
      "Ġbrace": 3068,
      "Ġscoot": 3069,
      "Ġliz": 3070,
      "ilty": 3071,
      "Ġguilty": 3072,
      "ipop": 3073,
      "icop": 3074,
      "Ġharmless": 3075,
      "icopter": 3076,
      "Ġlocked": 3077,
      "Ġusing": 3078,
      "Ġtire": 3079,
      "Ġnoteb": 3080,
      "Ġnotebook": 3081,
      "Ġtank": 3082,
      "Ġhelicopter": 3083,
      "Ġlollipop": 3084,
      "Ġrag": 3085,
      "Ġdeaf": 3086,
      "Ġpigeon": 3087,
      "ube": 3088,
      "Ġcrack": 3089,
      "Ġcrane": 3090,
      "iv": 3091,
      "Ġregular": 3092,
      "Ġcharming": 3093,
      "Ġang": 3094,
      "Ġharder": 3095,
      "Ġpipe": 3096,
      "Ġcompetit": 3097,
      "Ġpebb": 3098,
      "Ġyogurt": 3099,
      "Ġgrace": 3100,
      "ĠJenny": 3101,
      "Mama": 3102,
      "hip": 3103,
      "Ġmill": 3104,
      "pack": 3105,
      "Ġfluffy": 3106,
      "Ġlicked": 3107,
      "Ġhelps": 3108,
      "ext": 3109,
      "Ġrode": 3110,
      "Ġcarp": 3111,
      "Ġenv": 3112,
      "Ġwrapped": 3113,
      "Ġcact": 3114,
      "Ġshape": 3115,
      "Ġears": 3116,
      "Ġspill": 3117,
      "Ġnail": 3118,
      "aff": 3119,
      "Ġrep": 3120,
      "Ġlizard": 3121,
      "cident": 3122,
      "Ġrid": 3123,
      "Ġdust": 3124,
      "Ġvine": 3125,
      "Ġpale": 3126,
      "Ġdiary": 3127,
      "Ġpersist": 3128,
      "Ġfriendship": 3129,
      "Ġhelpless": 3130,
      "Ġordinary": 3131,
      "ĠEven": 3132,
      "Ġdisappointed": 3133,
      "ither": 3134,
      "Ġcarpet": 3135,
      "Ġoat": 3136,
      "Ġwalks": 3137,
      "comfortable": 3138,
      "Ġdolphin": 3139,
      "Ġtube": 3140,
      "Ġlit": 3141,
      "Ġuncomfortable": 3142,
      "Ġoffice": 3143,
      "cycle": 3144,
      "Ġloop": 3145,
      "Ġtap": 3146,
      "atter": 3147,
      "Ġcreate": 3148,
      "ging": 3149,
      "Ġboys": 3150,
      "Ġtears": 3151,
      "cream": 3152,
      "Ġgiving": 3153,
      "Ġhappiness": 3154,
      "Ġknot": 3155,
      "Ġraven": 3156,
      "Ġtroubled": 3157,
      "Ġtriangle": 3158,
      "Ġcactus": 3159,
      "Ġscreen": 3160,
      "Ġpasta": 3161,
      "ubby": 3162,
      "oby": 3163,
      "Ġanswered": 3164,
      "Ġcomet": 3165,
      "Their": 3166,
      "assion": 3167,
      "Ġroof": 3168,
      "Ġmush": 3169,
      "Ġplanet": 3170,
      "Ġpoured": 3171,
      "ellig": 3172,
      "Ġbeet": 3173,
      "Ġradio": 3174,
      "Ġchubby": 3175,
      "Ġintellig": 3176,
      "Ġcrawl": 3177,
      "ĠSammy": 3178,
      "ulu": 3179,
      "lcan": 3180,
      "Ġaccident": 3181,
      "Ġwhispered": 3182,
      "Ġpow": 3183,
      "Ġpersistent": 3184,
      "Ġsle": 3185,
      "Ġwire": 3186,
      "Ġmug": 3187,
      "Ġhalf": 3188,
      "Ġvide": 3189,
      "Ġtrack": 3190,
      "Ġshrimp": 3191,
      "Ġspend": 3192,
      "Ġspeed": 3193,
      "lcano": 3194,
      "Ġtag": 3195,
      "Ġcompassion": 3196,
      "cut": 3197,
      "Ġlibr": 3198,
      "ulif": 3199,
      "Ġcoins": 3200,
      "ĠJake": 3201,
      "Ġforward": 3202,
      "Ġflashlight": 3203,
      "Ġstream": 3204,
      "rework": 3205,
      "Ġload": 3206,
      "Ġpoem": 3207,
      "Ġcomput": 3208,
      "uliflower": 3209,
      "ccol": 3210,
      "ccoli": 3211,
      "Ġpracticed": 3212,
      "Ġeraser": 3213,
      "Ġpian": 3214,
      "Ġmelt": 3215,
      "ĠOK": 3216,
      "uth": 3217,
      "Ġreturned": 3218,
      "Ġdeliver": 3219,
      "Bobo": 3220,
      "Ġhook": 3221,
      "ĠToday": 3222,
      "Ġangel": 3223,
      "Ġshade": 3224,
      "coa": 3225,
      "Ġpiano": 3226,
      "ĠSh": 3227,
      "Ġdelight": 3228,
      "Ġmushroom": 3229,
      "Ġrestless": 3230,
      "Ġcauliflower": 3231,
      "Ġcoo": 3232,
      "Ġvolcano": 3233,
      "essie": 3234,
      "Timmy": 3235,
      "Ġtunn": 3236,
      "Ġhunt": 3237,
      "omes": 3238,
      "Ġtrunk": 3239,
      "Ġtunnel": 3240,
      "Ġmuffin": 3241,
      "Ġlying": 3242,
      "atient": 3243,
      "Ġfirework": 3244,
      "Ġfeathers": 3245,
      "Ġenvious": 3246,
      "Ġharsh": 3247,
      "zzy": 3248,
      "Ġmitten": 3249,
      "Ġintelligent": 3250,
      "rill": 3251,
      "Ġsheet": 3252,
      "Ġpengu": 3253,
      "Ġthread": 3254,
      "isted": 3255,
      "asing": 3256,
      "Ġpit": 3257,
      "Ġnod": 3258,
      "Ġvi": 3259,
      "Ġquestions": 3260,
      "Ġsurf": 3261,
      "Ġstretch": 3262,
      "Ġdestro": 3263,
      "Ġbracelet": 3264,
      "Ġcomputer": 3265,
      "erop": 3266,
      "eropl": 3267,
      "Ġbees": 3268,
      "Ġsoldier": 3269,
      "Ġchalk": 3270,
      "Ġenc": 3271,
      "Ġaeropl": 3272,
      "Ġguard": 3273,
      "Ġspun": 3274,
      "Ġcricket": 3275,
      "Ġinse": 3276,
      "Ġchain": 3277,
      "Ġsleeping": 3278,
      "acket": 3279,
      "dom": 3280,
      "Ġbroccoli": 3281,
      "Ġmotorcycle": 3282,
      "Ġcocoa": 3283,
      "Ġdreams": 3284,
      "Ġgraceful": 3285,
      "Ġbeetle": 3286,
      "Ġboxes": 3287,
      "Ġalert": 3288,
      "Ġtem": 3289,
      "Ġgifted": 3290,
      "anger": 3291,
      "Ġways": 3292,
      "Ġsailed": 3293,
      "ye": 3294,
      "Ġticket": 3295,
      "Ġsniff": 3296,
      "Ġpro": 3297,
      "Ġparade": 3298,
      "Ġsquash": 3299,
      "Ġskin": 3300,
      "Ġcupboard": 3301,
      "Ġdesk": 3302,
      "Ġscooter": 3303,
      "Ġorder": 3304,
      "aze": 3305,
      "Ġdecide": 3306,
      "Ġimpatient": 3307,
      "Ġhappening": 3308,
      "vator": 3309,
      "Ġstronger": 3310,
      "Ġyaw": 3311,
      "Go": 3312,
      "Sarah": 3313,
      "ebra": 3314,
      "Ġcompl": 3315,
      "azz": 3316,
      "Ġelevator": 3317,
      "ĠEmily": 3318,
      "Ġwalls": 3319,
      "Ġjacket": 3320,
      "Ġsung": 3321,
      "Ġnicely": 3322,
      "Ġshield": 3323,
      "Ġcompassionate": 3324,
      "Ġclub": 3325,
      "Ġacce": 3326,
      "ten": 3327,
      "Ġcase": 3328,
      "Ġeventually": 3329,
      "Ġbarber": 3330,
      "Ġmop": 3331,
      "Ġador": 3332,
      "Ġbiggest": 3333,
      "Ġenvel": 3334,
      "Ġinsect": 3335,
      "Ġcompetitive": 3336,
      "Ġslept": 3337,
      "Ġhomes": 3338,
      "ĠFr": 3339,
      "ushion": 3340,
      "Ġjudge": 3341,
      "Ġbicy": 3342,
      "Ġcushion": 3343,
      "Ġpony": 3344,
      "Ġbounced": 3345,
      "Ġskip": 3346,
      "Ġskipped": 3347,
      "ulb": 3348,
      "Ġbump": 3349,
      "ital": 3350,
      "Ġcleaning": 3351,
      "Ġjellyfish": 3352,
      "Ġearth": 3353,
      "Ġviol": 3354,
      "Ġspeak": 3355,
      "Ġhosp": 3356,
      "Ġtravel": 3357,
      "Ġmetal": 3358,
      "Ġtrucks": 3359,
      "Ġcable": 3360,
      "Ġadorable": 3361,
      "Ġhospital": 3362,
      "lasses": 3363,
      "Ġunlock": 3364,
      "Ġed": 3365,
      "ision": 3366,
      "Ġweek": 3367,
      "Ġpolish": 3368,
      "Ġsunglasses": 3369,
      "Ġbulb": 3370,
      "Ġcounting": 3371,
      "Ġcelebrate": 3372,
      "opard": 3373,
      "Ġzebra": 3374,
      "Ġstack": 3375,
      "Ġtruth": 3376,
      "Ġattract": 3377,
      "Ġexcite": 3378,
      "Ġbandage": 3379,
      "Ġtray": 3380,
      "Ġviolin": 3381,
      "Ġbin": 3382,
      "Ġthemselves": 3383,
      "Ġwheels": 3384,
      "ĠBuzz": 3385,
      "Ġmatt": 3386,
      "Ġshut": 3387,
      "Ġscatter": 3388,
      "ief": 3389,
      "tern": 3390,
      "urb": 3391,
      "Ġlouder": 3392,
      "rage": 3393,
      "Ġrubbed": 3394,
      "Ġsneeze": 3395,
      "igator": 3396,
      "Ġhaircut": 3397,
      "Ġwishes": 3398,
      "ĠLulu": 3399,
      "aky": 3400,
      "Ġfather": 3401,
      "Ġtrap": 3402,
      "Ġdestroy": 3403,
      "Ġdistant": 3404,
      "Ġwaffle": 3405,
      "Ġattractive": 3406,
      "Ġsaying": 3407,
      "Ġprun": 3408,
      "Ġbehave": 3409,
      "Ġresc": 3410,
      "Billy": 3411,
      "Ġthu": 3412,
      "Ġlively": 3413,
      "work": 3414,
      "Ġdisturb": 3415,
      "Ġignorant": 3416,
      "ete": 3417,
      "Ġforth": 3418,
      "Ġbushes": 3419,
      "Ġlights": 3420,
      "Ġaeroplane": 3421,
      "Ġtemp": 3422,
      "Ġbull": 3423,
      "chair": 3424,
      "Ġsort": 3425,
      "Ġcooked": 3426,
      "Ġbase": 3427,
      "Ġdeter": 3428,
      "Ġuncle": 3429,
      "aged": 3430,
      "Ġfu": 3431,
      "Ġcurt": 3432,
      "Ġalligator": 3433,
      "Ġpointing": 3434,
      "Ġleopard": 3435,
      "Ġveil": 3436,
      "umbers": 3437,
      "Ġteleph": 3438,
      "Ġcurtain": 3439,
      "ating": 3440,
      "Ġmeat": 3441,
      "Ġspinning": 3442,
      "Ġtummy": 3443,
      "Ġglove": 3444,
      "Ġbuttons": 3445,
      "Ġdeterm": 3446,
      "Ġfolder": 3447,
      "Ġlearning": 3448,
      "Ġarmchair": 3449,
      "Ġcomplet": 3450,
      "Ġenth": 3451,
      "Ġmattress": 3452,
      "Gra": 3453,
      "Ġtelephone": 3454,
      "Ġswitch": 3455,
      "Ġshowing": 3456,
      "Ġhedge": 3457,
      "Ġvest": 3458,
      "Ġlaughs": 3459,
      "Ġprep": 3460,
      "usia": 3461,
      "Ġenvelope": 3462,
      "Ġenthusia": 3463,
      "Ġrod": 3464,
      "usie": 3465,
      "ĠPoppy": 3466,
      "Ġzipp": 3467,
      "ĠPolly": 3468,
      "case": 3469,
      "umbled": 3470,
      "Ġwiped": 3471,
      "Ġwool": 3472,
      "ĠPipp": 3473,
      "Ġimpro": 3474,
      "Ġbubble": 3475,
      "Ġyoga": 3476,
      "Ġcity": 3477,
      "dest": 3478,
      "Ġsend": 3479,
      "ĠMum": 3480,
      "Ġbicycle": 3481,
      "Ġnumbers": 3482,
      "Ġsoar": 3483,
      "Ġsplit": 3484,
      "Ġpenny": 3485,
      "Ġskull": 3486,
      "Ġgrown": 3487,
      "Ġple": 3488,
      "Ġframe": 3489,
      "Ġpattern": 3490,
      "Ġglowing": 3491,
      "ention": 3492,
      "Ġpebble": 3493,
      "Ġencou": 3494,
      "ject": 3495,
      "Ġplayground": 3496,
      "bul": 3497,
      "Ġhotel": 3498,
      "Ġmarry": 3499,
      "Ġbarrel": 3500,
      "Ġvideo": 3501,
      "Ġcob": 3502,
      "Ġink": 3503,
      "Ġstranger": 3504,
      "ito": 3505,
      "Ġpeach": 3506,
      "Ġgrowl": 3507,
      "Ġbags": 3508,
      "Ġlibrary": 3509,
      "Ġyet": 3510,
      "?\".": 3511,
      "Ġfilm": 3512,
      "Ġgathered": 3513,
      "bulance": 3514,
      "ushed": 3515,
      "Ġambulance": 3516,
      "htub": 3517,
      "Ġpoke": 3518,
      "Ġcartoon": 3519,
      "Ġstation": 3520,
      "Ġbathtub": 3521,
      "Ġthief": 3522,
      "Ġrot": 3523,
      "Ġmakeup": 3524,
      "Ġsteak": 3525,
      "Ġradish": 3526,
      "Ġseal": 3527,
      "Ġloudly": 3528,
      "Ġjournal": 3529,
      "ĠLittle": 3530,
      "quito": 3531,
      "Ġmixer": 3532,
      "Ġcamp": 3533,
      "Ġonce": 3534,
      "Ġsweater": 3535,
      "ĠFo": 3536,
      "Ġyach": 3537,
      "Ġroot": 3538,
      "Ġmos": 3539,
      "web": 3540,
      "irit": 3541,
      "Ġmissile": 3542,
      "Ġraft": 3543,
      "Ġedge": 3544,
      "Ġpun": 3545,
      "Ġgolf": 3546,
      "Ġfalls": 3547,
      "Ġcobweb": 3548,
      "Ġmosquito": 3549,
      "Ġspell": 3550,
      "Ġpole": 3551,
      "Ġpost": 3552,
      "ffe": 3553,
      "Ġmodest": 3554,
      "Ġherb": 3555,
      "elery": 3556,
      "Ġrice": 3557,
      "ffee": 3558,
      "Ġpirate": 3559,
      "otter": 3560,
      "utes": 3561,
      "aving": 3562,
      "Ġknows": 3563,
      "Ġstrugg": 3564,
      "ĠRose": 3565,
      "Ġotter": 3566,
      "Ġnurse": 3567,
      "Ġrepe": 3568,
      "Ġyacht": 3569,
      "par": 3570,
      "uring": 3571,
      "Ġled": 3572,
      "Ġreading": 3573,
      "Ġsalt": 3574,
      "'d": 3575,
      "Ġspear": 3576,
      "Ġkay": 3577,
      "Ġmeans": 3578,
      "Ġsaus": 3579,
      "Ġuniver": 3580,
      "anda": 3581,
      "Ġcelery": 3582,
      "Ġbarking": 3583,
      "nam": 3584,
      "Jimmy": 3585,
      "iew": 3586,
      "Ġdecorate": 3587,
      "lies": 3588,
      "ĠTweet": 3589,
      "Ġitself": 3590,
      "Ġtroph": 3591,
      "head": 3592,
      "Ġshells": 3593,
      "Ġarg": 3594,
      "Ġadded": 3595,
      "Ġcalling": 3596,
      "esday": 3597,
      "Ġmild": 3598,
      "Ġmessage": 3599,
      "Ġfootball": 3600,
      "Ġdriving": 3601,
      "Ġstrawberry": 3602,
      "Ġview": 3603,
      "Ġgrapes": 3604,
      "Ġpastry": 3605,
      "Ġslides": 3606,
      "Ġtrophy": 3607,
      "Ġcoffee": 3608,
      "Ġtripped": 3609,
      "Ġdrawings": 3610,
      "Ġcups": 3611,
      "Ġdive": 3612,
      "ĠPeople": 3613,
      "time": 3614,
      "Ġpine": 3615,
      "Ġmanaged": 3616,
      "Ġbrothers": 3617,
      "Ġflea": 3618,
      "ilot": 3619,
      "ophone": 3620,
      "hic": 3621,
      "Ġmeadow": 3622,
      "Ġvehic": 3623,
      "Ġminutes": 3624,
      "Ġhall": 3625,
      "ric": 3626,
      "illa": 3627,
      "la": 3628,
      "Ġbathrobe": 3629,
      "nament": 3630,
      "Give": 3631,
      "Well": 3632,
      "Ġornament": 3633,
      "Ġkayak": 3634,
      "ait": 3635,
      "stic": 3636,
      "asher": 3637,
      "Ġrepair": 3638,
      "istol": 3639,
      "Ġpowder": 3640,
      "Ġfireman": 3641,
      "Ġspirit": 3642,
      "Ġfisher": 3643,
      "we": 3644,
      "ĠTina": 3645,
      "Ġenthusiastic": 3646,
      "Ġmagaz": 3647,
      "Ġtemple": 3648,
      "washer": 3649,
      "Ġpurse": 3650,
      "Ġsupport": 3651,
      "Ġhandle": 3652,
      "Ġwhenever": 3653,
      "Ġpenguin": 3654,
      "Ġsepar": 3655,
      "Ġvend": 3656,
      "leton": 3657,
      "keleton": 3658,
      "Ġpistol": 3659,
      "Ġknight": 3660,
      "Ġwallet": 3661,
      "Ġtask": 3662,
      "Joe": 3663,
      "Ġdishwasher": 3664,
      "Ġgasp": 3665,
      "Ġsailor": 3666,
      "ines": 3667,
      "ĠToby": 3668,
      "seum": 3669,
      "Ġgiggled": 3670,
      "iron": 3671,
      "Ġoy": 3672,
      "Ġtear": 3673,
      "ache": 3674,
      "Ġeye": 3675,
      "Ġeither": 3676,
      "ĠBirdy": 3677,
      "Ġmuseum": 3678,
      "Ġquit": 3679,
      "ĠPeter": 3680,
      "Ġcoal": 3681,
      "Ġmarble": 3682,
      "nger": 3683,
      "Ġpilot": 3684,
      "Ġsuggest": 3685,
      "Ġhipp": 3686,
      "Ġvendor": 3687,
      "Ġshort": 3688,
      "Ġthunder": 3689,
      "Ġsandbox": 3690,
      "Ġattic": 3691,
      "Ġdisappeared": 3692,
      "Ġshocked": 3693,
      "Ġpatch": 3694,
      "Ġearly": 3695,
      "Fluffy": 3696,
      "Ġkindness": 3697,
      "Ġcolour": 3698,
      "Ġperm": 3699,
      "Ġdetermined": 3700,
      "old": 3701,
      "Ġoak": 3702,
      "Ġanch": 3703,
      "Ġcell": 3704,
      "play": 3705,
      "Ġmicr": 3706,
      "cing": 3707,
      "Ġwife": 3708,
      "Ġpal": 3709,
      "Ġchess": 3710,
      "Ġknock": 3711,
      "Ġfisherman": 3712,
      "Ġstaff": 3713,
      "Ġcane": 3714,
      "Ġflame": 3715,
      "Ġmule": 3716,
      "Bye": 3717,
      "Ġok": 3718,
      "Ġdrawer": 3719,
      "arian": 3720,
      "Ġoil": 3721,
      "ĠLook": 3722,
      "Ġmem": 3723,
      "Ġreward": 3724,
      "Ġpee": 3725,
      "Ġmicrophone": 3726,
      "Jill": 3727,
      "Ġten": 3728,
      "Ġthose": 3729,
      "ceed": 3730,
      "Ġenjoying": 3731,
      "ĠBet": 3732,
      "Ġsight": 3733,
      "Ġstairs": 3734,
      "Ġsafely": 3735,
      "Ġanchor": 3736,
      "ĠMiss": 3737,
      "ĠRob": 3738,
      "Ġitch": 3739,
      "Ġcooking": 3740,
      "Ġskeleton": 3741,
      "Ġdisplay": 3742,
      "Ġlime": 3743,
      "Ġoften": 3744,
      "ctop": 3745,
      "Ġcomplete": 3746,
      "Ġflour": 3747,
      "Ġzipper": 3748,
      "ugged": 3749,
      "Ġribb": 3750,
      "ĠDan": 3751,
      "Ġfastest": 3752,
      "Ġtornado": 3753,
      "Ġpalace": 3754,
      "Em": 3755,
      "Ġhurry": 3756,
      "ready": 3757,
      "Ġow": 3758,
      "Ġlotion": 3759,
      "Ġrolling": 3760,
      "Ġhippo": 3761,
      "Ġstumbled": 3762,
      "Ġlaser": 3763,
      "Ġexplain": 3764,
      "Ġpacked": 3765,
      "keep": 3766,
      "urch": 3767,
      "Ġalready": 3768,
      "Ġbookcase": 3769,
      "Ġhanging": 3770,
      "Ġhunter": 3771,
      "Ġtut": 3772,
      "Ġgear": 3773,
      "Ġscrew": 3774,
      "Ġnewsp": 3775,
      "ctopus": 3776,
      "Ġhours": 3777,
      "Ġjuicy": 3778,
      "Ġsucceed": 3779,
      "Ġrake": 3780,
      "Ġgrandpa": 3781,
      "bol": 3782,
      "Ġresist": 3783,
      "Ġbathe": 3784,
      "Ġsteps": 3785,
      "Ġrealised": 3786,
      "Ġbikes": 3787,
      "Re": 3788,
      "See": 3789,
      "ĠHere": 3790,
      "ĠPete": 3791,
      "Ġfreez": 3792,
      "ymbol": 3793,
      "Ġbananas": 3794,
      "Ġpor": 3795,
      "ailable": 3796,
      "Ġjunk": 3797,
      "zag": 3798,
      "Ġsparkly": 3799,
      "Ġthinking": 3800,
      "Ġcherries": 3801,
      "Ġiron": 3802,
      "Ġrever": 3803,
      "Ġlaund": 3804,
      "Ġlaundry": 3805,
      "Al": 3806,
      "ination": 3807,
      "Ġweep": 3808,
      "Ġmarched": 3809,
      "come": 3810,
      "Ġpackage": 3811,
      "ron": 3812,
      "Ġaut": 3813,
      "Ġfive": 3814,
      "Ġsett": 3815,
      "igzag": 3816,
      "Ġoctopus": 3817,
      "Ġtools": 3818,
      "Ġtutor": 3819,
      "Ġdreamed": 3820,
      "Ġmagazine": 3821,
      "vet": 3822,
      "Ġnovel": 3823,
      "Ġpicking": 3824,
      "Ġholds": 3825,
      "Ġavailable": 3826,
      "Ġoyster": 3827,
      "Ġmaze": 3828,
      "ense": 3829,
      "Ġrise": 3830,
      "Ġblackboard": 3831,
      "ctory": 3832,
      "ĠSnow": 3833,
      "Ġwhip": 3834,
      "Ġfrogs": 3835,
      "Ġur": 3836,
      "Ġcooler": 3837,
      "Ġcardboard": 3838,
      "Ġmedal": 3839,
      "ckey": 3840,
      "Ġsymbol": 3841,
      "aroo": 3842,
      "Ġhockey": 3843,
      "angaroo": 3844,
      "Ġcord": 3845,
      "Ġchurch": 3846,
      "apers": 3847,
      "Ġpear": 3848,
      "ĠEverywhere": 3849,
      "Ġopens": 3850,
      "Ġdiscovered": 3851,
      "Ġoats": 3852,
      "ik": 3853,
      "Ġtrail": 3854,
      "Ġfactory": 3855,
      "Ġax": 3856,
      "Ġgym": 3857,
      "azor": 3858,
      "Ġtrash": 3859,
      "Ġnotice": 3860,
      "Ġkangaroo": 3861,
      "Ġbattery": 3862,
      "Ġgor": 3863,
      "Ġmath": 3864,
      "Ġvalu": 3865,
      "Ġnames": 3866,
      "Ġpinch": 3867,
      "Ġcomplain": 3868,
      "ĠSunny": 3869,
      "Ġagainst": 3870,
      "Ġphoto": 3871,
      "obile": 3872,
      "ions": 3873,
      "Ġcheck": 3874,
      "Ġminer": 3875,
      "Ġbill": 3876,
      "Ġimagine": 3877,
      "Ġboots": 3878,
      "Ġsilver": 3879,
      "Ġfuel": 3880,
      "loo": 3881,
      "Ġallowed": 3882,
      "Ġaxe": 3883,
      "ney": 3884,
      "omobile": 3885,
      "Ġbasketball": 3886,
      "Ġspilled": 3887,
      "Ġautomobile": 3888,
      "Ġtub": 3889,
      "Ġstared": 3890,
      "Ġsne": 3891,
      "uper": 3892,
      "lu": 3893,
      "Ġig": 3894,
      "Ġdess": 3895,
      "Ġswinging": 3896,
      "Ġigloo": 3897,
      "eer": 3898,
      "Ġholes": 3899,
      "iches": 3900,
      "Ġporch": 3901,
      "Ġsize": 3902,
      "Ġorganize": 3903,
      "Ġsandwiches": 3904,
      "Wait": 3905,
      "ĠBessie": 3906,
      "ĠCo": 3907,
      "Ġtightly": 3908,
      "Ġolive": 3909,
      "drobe": 3910,
      "Ġwardrobe": 3911,
      "Ġimprove": 3912,
      "Ġmay": 3913,
      "imney": 3914,
      "Ġstickers": 3915,
      "Ġdrain": 3916,
      "Ġbaseball": 3917,
      "Ġfog": 3918,
      "Ġpretending": 3919,
      "keeper": 3920,
      "Ġshrink": 3921,
      "Ġpractice": 3922,
      "Ġcostume": 3923,
      "Ġreind": 3924,
      "ĠKim": 3925,
      "Ġgrill": 3926,
      "ature": 3927,
      "Ġshaking": 3928,
      "Ġoffered": 3929,
      "Ġnapkin": 3930,
      "Ġlend": 3931,
      "Ġskirt": 3932,
      "Ġattach": 3933,
      "Ġcircles": 3934,
      "Ġexcitement": 3935,
      "Ġleash": 3936,
      "Ġdistance": 3937,
      "Ġfingers": 3938,
      "Ġtaller": 3939,
      "Ġjokes": 3940,
      "arry": 3941,
      "Ġtheater": 3942,
      "Is": 3943,
      "vision": 3944,
      "iest": 3945,
      "Ġcows": 3946,
      "Ġchimney": 3947,
      "Ġjumps": 3948,
      "Ġfest": 3949,
      "ĠSpike": 3950,
      "Ġtowers": 3951,
      "Ġmen": 3952,
      "Ġrazor": 3953,
      "ured": 3954,
      "Ġreindeer": 3955,
      "Ġfalling": 3956,
      "Ow": 3957,
      "Ġinclu": 3958,
      "ĠGive": 3959,
      "ival": 3960,
      "Ġfreezer": 3961,
      "ionary": 3962,
      "Ġtelevision": 3963,
      "aid": 3964,
      "Ġhut": 3965,
      "asis": 3966,
      "Ġgorilla": 3967,
      "Ġbillboard": 3968,
      "ately": 3969,
      "Ġairport": 3970,
      "ictionary": 3971,
      "Ġtelling": 3972,
      "Ġgasped": 3973,
      "ucet": 3974,
      "Ġlumber": 3975,
      "Ġcabinet": 3976,
      "Ġnewspaper": 3977,
      "Ġvaluable": 3978,
      "ĠZip": 3979,
      "Ġchose": 3980,
      "Ġfile": 3981,
      "htray": 3982,
      "Ġfaucet": 3983,
      "Ġrhin": 3984,
      "Ġpressed": 3985,
      "Ġanyway": 3986,
      "Ġblin": 3987,
      "body": 3988,
      "ĠSusie": 3989,
      "place": 3990,
      "Ġfestival": 3991,
      "Ġpanda": 3992,
      "Ġstops": 3993,
      "Ġlightning": 3994,
      "Ġrescue": 3995,
      "omed": 3996,
      "Ġoasis": 3997,
      "Ġrece": 3998,
      "Ġclimbing": 3999,
      "vice": 4000,
      "Ġped": 4001,
      "Ġlabel": 4002,
      "Ġdreaming": 4003,
      "Ġson": 4004,
      "Ġletters": 4005,
      "Ġblueberries": 4006,
      "Ġspoke": 4007,
      "Ġashtray": 4008,
      "Ġahead": 4009,
      "Ġrules": 4010,
      "Ġdessert": 4011,
      "Ġmummy": 4012,
      "Ġmint": 4013,
      "fa": 4014,
      "Ġsnap": 4015,
      "Little": 4016,
      "Ġneat": 4017,
      "Ġleaving": 4018,
      "aches": 4019,
      "Ġobject": 4020,
      "Ġvehicle": 4021,
      "eros": 4022,
      "!\".": 4023,
      "Ġbuckle": 4024,
      "fast": 4025,
      "rosc": 4026,
      "Ġpainter": 4027,
      "Ġdisag": 4028,
      "Ġhung": 4029,
      "Ġjewelry": 4030,
      "iki": 4031,
      "Ġdictionary": 4032,
      "Ġroared": 4033,
      "roscope": 4034,
      "riger": 4035,
      "Ġfireplace": 4036,
      "Ġbookshe": 4037,
      "rigerator": 4038,
      "Ġtrains": 4039,
      "Ġbreakfast": 4040,
      "Ġhappier": 4041,
      "ĠAre": 4042,
      "Ġserve": 4043,
      "Ġstretched": 4044,
      "Ġrefrigerator": 4045,
      "oceros": 4046,
      "Ġagree": 4047,
      "Ġunpack": 4048,
      "te": 4049,
      "Ġsuper": 4050,
      "Ġpapers": 4051,
      "Ġhelper": 4052,
      "bbles": 4053,
      "Ġbelongs": 4054,
      "Ġinvite": 4055,
      "Ġceiling": 4056,
      "ium": 4057,
      "Ġhanger": 4058,
      "Ġjail": 4059,
      "affe": 4060,
      "ĠZoom": 4061,
      "Ġstirred": 4062,
      "Ġbookshelf": 4063,
      "Ġdoesn": 4064,
      "cu": 4065,
      "Ġlistening": 4066,
      "Ġsquirrels": 4067,
      "Ġext": 4068,
      "Ġgrowing": 4069,
      "Ġbrick": 4070,
      "stri": 4071,
      "Ġweather": 4072,
      "Ġcards": 4073,
      "Ġmeeting": 4074,
      "ĠPippin": 4075,
      "Ġrhinoceros": 4076,
      "Ġtoile": 4077,
      "Ġseparate": 4078,
      "gen": 4079,
      "Ġpoked": 4080,
      "Ġleaned": 4081,
      "Ġbeep": 4082,
      "Ġlie": 4083,
      "Ġgrand": 4084,
      "ampoo": 4085,
      "ience": 4086,
      "Ġtoilet": 4087,
      "lter": 4088,
      "Ġshelter": 4089,
      "reek": 4090,
      "Ġpopped": 4091,
      "Ġgrape": 4092,
      "ĠBetty": 4093,
      "Ġblouse": 4094,
      "Ġhive": 4095,
      "Ġknob": 4096,
      "Ġcomfort": 4097,
      "Ġrubber": 4098,
      "Ġcreek": 4099,
      "Ġlip": 4100,
      "Ġrestaur": 4101,
      "Daisy": 4102,
      "Ġwipe": 4103,
      "ĠBoun": 4104,
      "Ġshampoo": 4105,
      "Ġanywhere": 4106,
      "Ġpleased": 4107,
      "Ġpassport": 4108,
      "Ġdisappear": 4109,
      "Ġtwir": 4110,
      "Ġadvice": 4111,
      "Ġprov": 4112,
      "Ġhate": 4113,
      "Ġpoint": 4114,
      "Ġchance": 4115,
      "Ġtease": 4116,
      "Ġpeeked": 4117,
      "Ġopera": 4118,
      "Ġpastel": 4119,
      "Ġrestaurant": 4120,
      "ected": 4121,
      "Ġquiz": 4122,
      "Ġsub": 4123,
      "Ġcale": 4124,
      "Ġcalend": 4125,
      "ĠV": 4126,
      "Ġsweetie": 4127,
      "Ġsofa": 4128,
      "Ġgiraffe": 4129,
      "Ġsausage": 4130,
      "Ġextra": 4131,
      "del": 4132,
      "Ġalarm": 4133,
      "xy": 4134,
      "Mummy": 4135,
      "Ġostri": 4136,
      "Ġreverse": 4137,
      "Ġslipp": 4138,
      "Ġbeef": 4139,
      "ef": 4140,
      "Ġunite": 4141,
      "ĠDolly": 4142,
      "Ġrail": 4143,
      "Ġweigh": 4144,
      "Ġins": 4145,
      "astic": 4146,
      "Ġaccidentally": 4147,
      "night": 4148,
      "Ġswung": 4149,
      "Ġtuna": 4150,
      "ĠRed": 4151,
      "Ġbutterflies": 4152,
      "res": 4153,
      "ogn": 4154,
      "Ġriding": 4155,
      "Ġcalendar": 4156,
      "Did": 4157,
      "stairs": 4158,
      "ĠBinky": 4159,
      "Ġobser": 4160,
      "Ġgas": 4161,
      "adium": 4162,
      "Ġrecogn": 4163,
      "Ġcudd": 4164,
      "Ġstadium": 4165,
      "Ġmodel": 4166,
      "Ġwindows": 4167,
      "na": 4168,
      "Mr": 4169,
      "Ġpeek": 4170,
      "Ġperfume": 4171,
      "Ouch": 4172,
      "Ġsuff": 4173,
      "Ġmicroscope": 4174,
      "rmomet": 4175,
      "Ġbet": 4176,
      "ummer": 4177,
      "ĠGrandpa": 4178,
      "inarian": 4179,
      "ĠTeddy": 4180,
      "eterinarian": 4181,
      "rmometer": 4182,
      "Ġwaste": 4183,
      "Ġsounded": 4184,
      "Ġfavour": 4185,
      "Ġhappens": 4186,
      "Ġsent": 4187,
      "Ġstom": 4188,
      "Ġveterinarian": 4189,
      "..": 4190,
      "Ġnature": 4191,
      "ations": 4192,
      "Ġadmire": 4193,
      "Ġbury": 4194,
      "Ġaccept": 4195,
      "amber": 4196,
      "Ġlic": 4197,
      "Ġgoal": 4198,
      "Ġsqueeze": 4199,
      "ĠWhere": 4200,
      "Ġostrich": 4201,
      "Ġwarned": 4202,
      "ison": 4203,
      "Ġsoil": 4204,
      "Ġcaring": 4205,
      "Ġtrade": 4206,
      "Ġfavourite": 4207,
      "Ġswamp": 4208,
      "Ġchamber": 4209,
      "Ġimagined": 4210,
      "Ġsuggested": 4211,
      "Ġinf": 4212,
      "Ġcliff": 4213,
      "Ġmissing": 4214,
      "ĠBuzzy": 4215,
      "Ġapron": 4216,
      "aspoon": 4217,
      "Ġrefused": 4218,
      "Ġlawy": 4219,
      "render": 4220,
      "ĠMrs": 4221,
      "Ġproblems": 4222,
      "Ġstarts": 4223,
      "Ġshower": 4224,
      "iform": 4225,
      "Ġmusician": 4226,
      "Ġfort": 4227,
      "Ġuniform": 4228,
      "angu": 4229,
      "Ġthermometer": 4230,
      "low": 4231,
      "iture": 4232,
      "Ġsurprises": 4233,
      "urniture": 4234,
      "Ġwinter": 4235,
      "Ġsubway": 4236,
      "Ġreef": 4237,
      "Ġlangu": 4238,
      "ĠMar": 4239,
      "Ġsearching": 4240,
      "Ġfurniture": 4241,
      "elcome": 4242,
      "Ġsadly": 4243,
      "Ġpuddles": 4244,
      "Ġfixing": 4245,
      "Ġlicense": 4246,
      "med": 4247,
      "Ġsummer": 4248,
      "ĠHel": 4249,
      "Ch": 4250,
      "Ġlid": 4251,
      "Ġplates": 4252,
      "Ġfinds": 4253,
      "Ġbent": 4254,
      "Ġpage": 4255,
      "Ġspoil": 4256,
      "Ġsaving": 4257,
      "peedy": 4258,
      "Ġprevent": 4259,
      "Ġmonkeys": 4260,
      "Ġchasing": 4261,
      "Ġdoors": 4262,
      "Ġincre": 4263,
      "Ġfrowned": 4264,
      "Ġargue": 4265,
      "Ġblinked": 4266,
      "Ġwigg": 4267,
      "Ġstable": 4268,
      "thank": 4269,
      "Ġdancer": 4270,
      "Ġhanded": 4271,
      "Ġclassroom": 4272,
      "Ġlawn": 4273,
      "Ġabove": 4274,
      "Ġsteam": 4275,
      "Ġignore": 4276,
      "Ġcrib": 4277,
      "Ġlawyer": 4278,
      "Ġcur": 4279,
      "Ġchairs": 4280,
      "Ġpushing": 4281,
      "Ġstrip": 4282,
      "Ġrushed": 4283,
      "ola": 4284,
      "Ġmistakes": 4285,
      "Ġteaspoon": 4286,
      "Ġadmired": 4287,
      "Ġbrightly": 4288,
      "Ġcarrying": 4289,
      "ĠAlice": 4290,
      "Ġrespectful": 4291,
      "Ġexcitedly": 4292,
      "rod": 4293,
      "Ġmass": 4294,
      "Ġintrod": 4295,
      "Ġslip": 4296,
      "Ġpair": 4297,
      "Ġshouts": 4298,
      "Ġart": 4299,
      "Ġfloat": 4300,
      "Ġreplace": 4301,
      "Ġsneezed": 4302,
      "Mary": 4303,
      "Ġmall": 4304,
      "veal": 4305,
      "Ġsocks": 4306,
      "Your": 4307,
      "ucture": 4308,
      "ĠY": 4309,
      "Ġyield": 4310,
      "Ġstructure": 4311,
      "Ġchoice": 4312,
      "mend": 4313,
      "Ġraise": 4314,
      "cage": 4315,
      "Ġplastic": 4316,
      "Ġforgave": 4317,
      "ĠBill": 4318,
      "Ġbirdcage": 4319,
      "ĠOlive": 4320,
      "ricane": 4321,
      "Ġsunset": 4322,
      "Ġlions": 4323,
      "Ġprepare": 4324,
      "aked": 4325,
      "Ġcherry": 4326,
      "Ġmeas": 4327,
      "Ġzoomed": 4328,
      "Ġsniffed": 4329,
      "ommend": 4330,
      "lex": 4331,
      "Ġreveal": 4332,
      "Ġolder": 4333,
      "ĠPandy": 4334,
      "Ġhuman": 4335,
      "Ġaw": 4336,
      "Ġpulls": 4337,
      "Ġshakes": 4338,
      "alley": 4339,
      "Ġvalley": 4340,
      "Ġrecommend": 4341,
      "ĠBubbles": 4342,
      "Ġshovel": 4343,
      "Ġgro": 4344,
      "iday": 4345,
      "Ġmineral": 4346,
      "ince": 4347,
      "ĠOw": 4348,
      "Ġsupply": 4349,
      "Ġinfant": 4350,
      "Yay": 4351,
      "Ġended": 4352,
      "Ġsurrender": 4353,
      "icky": 4354,
      "ĠCl": 4355,
      "Ġslippery": 4356,
      "Ġmystery": 4357,
      "aul": 4358,
      "ĠBig": 4359,
      "ĠKiki": 4360,
      "olog": 4361,
      "chan": 4362,
      "Ġpup": 4363,
      "ĠFl": 4364,
      "Ġappl": 4365,
      "Ġrepeat": 4366,
      "Ġrac": 4367,
      "Ġapolog": 4368,
      "Ġweap": 4369,
      "Ġmustache": 4370,
      "Ġplayer": 4371,
      "Ġproudly": 4372,
      "ĠPat": 4373,
      "Ġsticker": 4374,
      "Ġclaw": 4375,
      "Ġwine": 4376,
      "ĠLee": 4377,
      "Ġhol": 4378,
      "Ġdear": 4379,
      "Ġberry": 4380,
      "ĠCarl": 4381,
      "Ġremove": 4382,
      "Ġfre": 4383,
      "ecause": 4384,
      "Ġregret": 4385,
      "Ġshone": 4386,
      "Ġdelay": 4387,
      "Ġgrabs": 4388,
      "Ġholiday": 4389,
      "Ġsticky": 4390,
      "eor": 4391,
      "Ġpoints": 4392,
      "Ġfought": 4393,
      "Ġpanic": 4394,
      "Ġpages": 4395,
      "Ġranch": 4396,
      "Ġbeg": 4397,
      "Ġspade": 4398,
      "ĠWould": 4399,
      "Ġkinds": 4400,
      "Ġshivering": 4401,
      "Ġcolourful": 4402,
      "chanic": 4403,
      "Yuck": 4404,
      "Ġputting": 4405,
      "Ġrained": 4406,
      "Ġribbon": 4407,
      "Ġlanguage": 4408,
      "ĠSpeedy": 4409,
      "Ġlives": 4410,
      "Ġhoping": 4411,
      "Ġcountry": 4412,
      "eorge": 4413,
      "Ġbarks": 4414,
      "ĠNext": 4415,
      "Ġharb": 4416,
      "Ġsuffer": 4417,
      "Ġmechanic": 4418,
      "Ġevent": 4419,
      "Ġthanks": 4420,
      "Ġdelighted": 4421,
      "Ġevening": 4422,
      "Ġreminded": 4423,
      "cuss": 4424,
      "Next": 4425,
      "ĠMike": 4426,
      "Qu": 4427,
      "Ġport": 4428,
      "Buddy": 4429,
      "Grandma": 4430,
      "ero": 4431,
      "imed": 4432,
      "Ġleak": 4433,
      "aud": 4434,
      "Ġdiscuss": 4435,
      "icer": 4436,
      "Ġclapping": 4437,
      "Ġcopper": 4438,
      "Ġimpressed": 4439,
      "hero": 4440,
      "Ġgiggle": 4441,
      "Ġprayed": 4442,
      "Ġlugg": 4443,
      "Ġbend": 4444,
      "Ġshoulder": 4445,
      "Ġsuperhero": 4446,
      "Ġunh": 4447,
      "Ġsoftly": 4448,
      "ĠRu": 4449,
      "Ġsprayed": 4450,
      "Ġhurricane": 4451,
      "Ġharbor": 4452,
      "Ġluggage": 4453,
      "Ġcared": 4454,
      "ement": 4455,
      "Ġchickens": 4456,
      "ĠDave": 4457,
      "Ġpushes": 4458,
      "arlie": 4459,
      "Ġtip": 4460,
      "Ġsudden": 4461,
      "Ġrestore": 4462,
      "ĠFreddy": 4463,
      "Ġmenu": 4464,
      "Ġfresh": 4465,
      "ĠBow": 4466,
      "ĠEnd": 4467,
      "Ġkeeping": 4468,
      "ĠHelp": 4469,
      "Ġsunr": 4470,
      "apping": 4471,
      "Will": 4472,
      "Ġsty": 4473,
      "Ġalive": 4474,
      "ason": 4475,
      "wards": 4476,
      "Ġsteel": 4477,
      "Ġbeans": 4478,
      "ĠZoomy": 4479,
      "ari": 4480,
      "Ġfeelings": 4481,
      "Ġthrowing": 4482,
      "Ġmeowed": 4483,
      "ĠEllie": 4484,
      "Ġcastles": 4485,
      "cer": 4486,
      "Ġapplaud": 4487,
      "Ġrush": 4488,
      "ĠJazz": 4489,
      "Ġnetwork": 4490,
      "Ġleather": 4491,
      "Ġsomewhere": 4492,
      "riage": 4493,
      "Ġequ": 4494,
      "Emma": 4495,
      "Ġchirp": 4496,
      "Ġexamine": 4497,
      "Ġsigh": 4498,
      "Ġbrighter": 4499,
      "Ġsunrise": 4500,
      "Ġkneel": 4501,
      "ĠMandy": 4502,
      "Ġtrusted": 4503,
      "Ġbumped": 4504,
      "Ġmatches": 4505,
      "Ġmassage": 4506,
      "Ġunhappy": 4507,
      "cast": 4508,
      "Ġskill": 4509,
      "Ġbreat": 4510,
      "heart": 4511,
      "Ġener": 4512,
      "Ġcontent": 4513,
      "Ġshrugged": 4514,
      "Ġweapon": 4515,
      "Ġcourage": 4516,
      "ĠSque": 4517,
      "Ġyawned": 4518,
      "Ġrow": 4519,
      "Ġstreng": 4520,
      "ĠUn": 4521,
      "Ġflies": 4522,
      "Ġparts": 4523,
      "All": 4524,
      "men": 4525,
      "Ġsandcast": 4526,
      "cond": 4527,
      "Ġstrength": 4528,
      "hter": 4529,
      "Ġstarting": 4530,
      "Ann": 4531,
      "Ġlaughter": 4532,
      "Ġhorses": 4533,
      "Ġprovide": 4534,
      "Ġgreedy": 4535,
      "Ġnation": 4536,
      "Ġgain": 4537,
      "Ġdrops": 4538,
      "Ġsecond": 4539,
      "Ġsplashing": 4540,
      "oe": 4541,
      "year": 4542,
      "Ġletting": 4543,
      "sity": 4544,
      "erc": 4545,
      "ĠOr": 4546,
      "Ġfreeze": 4547,
      "Ġexplored": 4548,
      "Ġx": 4549,
      "Ġcrossed": 4550,
      "Ġenter": 4551,
      "Ġscore": 4552,
      "Mark": 4553,
      "Ġdare": 4554,
      "Ġbreaks": 4555,
      "Ġpigs": 4556,
      "Ġsmells": 4557,
      "Ġdem": 4558,
      "Ġeaten": 4559,
      "Ġsqueezed": 4560,
      "Ġthumb": 4561,
      "acked": 4562,
      "Ġmarriage": 4563,
      "Ġminute": 4564,
      "Ġrooms": 4565,
      "Ġthrows": 4566,
      "ĠLilly": 4567,
      "Ġexpect": 4568,
      "Ġpunish": 4569,
      "Daddy": 4570,
      "igi": 4571,
      "Ġdishes": 4572,
      "Ġstud": 4573,
      "Ġbouncing": 4574,
      "Ġchecked": 4575,
      "Ġrabbits": 4576,
      "ĠTed": 4577,
      "Ġflood": 4578,
      "Ġvac": 4579,
      "Ġplanes": 4580,
      "Ġjogged": 4581,
      "Ġprune": 4582,
      "Ġdemand": 4583,
      "ĠElly": 4584,
      "Ġsnugg": 4585,
      "Ġoffer": 4586,
      "Ġsweetheart": 4587,
      "Ġimagination": 4588,
      "ipment": 4589,
      "Ġheads": 4590,
      "Ġexerc": 4591,
      "Ġscratch": 4592,
      "Ġequipment": 4593,
      "Ġmention": 4594,
      "Ġclaws": 4595,
      "Ġtoe": 4596,
      "Ġtracks": 4597,
      "Alice": 4598,
      "Ready": 4599,
      "eration": 4600,
      "ĠHoppy": 4601,
      "Ġheat": 4602,
      "Ġburned": 4603,
      "Ġsettle": 4604,
      "Ġbaking": 4605,
      "Ġnavy": 4606,
      "Ġsparkled": 4607,
      "isty": 4608,
      "Ġhearts": 4609,
      "bles": 4610,
      "Ġwre": 4611,
      "Ġhist": 4612,
      "inking": 4613,
      "Ġbears": 4614,
      "Ġsir": 4615,
      "ĠSk": 4616,
      "Ġhistory": 4617,
      "Ġflapped": 4618,
      "Ġbrain": 4619,
      "Ġremain": 4620,
      "ĠCoco": 4621,
      "ges": 4622,
      "ially": 4623,
      "Ġmyself": 4624,
      "Ġhopes": 4625,
      "otten": 4626,
      "Ġpirates": 4627,
      "ĠSoph": 4628,
      "Ġcalls": 4629,
      "quest": 4630,
      "Ġbadly": 4631,
      "Ġscold": 4632,
      "Ġenergy": 4633,
      "Ġsport": 4634,
      "Ġbeauty": 4635,
      "Ġraining": 4636,
      "Ġcoats": 4637,
      "ĠGrace": 4638,
      "Ġignored": 4639,
      "Ġplaced": 4640,
      "Ġshopkeeper": 4641,
      "spec": 4642,
      "Ġrequest": 4643,
      "ĠPenny": 4644,
      "Ġgiven": 4645,
      "Ġuniverse": 4646,
      "Ġinsisted": 4647,
      "Ġpur": 4648,
      "Ġpermit": 4649,
      "Ġtide": 4650,
      "Ġyucky": 4651,
      "ĠLucky": 4652,
      "Ġblowing": 4653,
      "specially": 4654,
      "Lisa": 4655,
      "Ġsew": 4656,
      "Ġplanned": 4657,
      "Ġpoison": 4658,
      "Ġpaid": 4659,
      "Ġcheek": 4660,
      "Ġpedal": 4661,
      "quake": 4662,
      "Ġbuzz": 4663,
      "Ġbelieved": 4664,
      "Ġwarn": 4665,
      "Welcome": 4666,
      "ĠSm": 4667,
      "Ġspots": 4668,
      "Ġinvit": 4669,
      "Ġcandles": 4670,
      "Ġprunes": 4671,
      "Ġeasily": 4672,
      "Ġstrawberries": 4673,
      "Before": 4674,
      "Ġearthquake": 4675,
      "mare": 4676,
      "mble": 4677,
      "Ġfurt": 4678,
      "ĠUnder": 4679,
      "ween": 4680,
      "Ġespecially": 4681,
      "Ġtwisted": 4682,
      "Ġwriting": 4683,
      "Ġmailman": 4684,
      "Ġbetween": 4685,
      "Mimi": 4686,
      "house": 4687,
      "Ġcape": 4688,
      "ĠBluey": 4689,
      "Ġtug": 4690,
      "Ġsoak": 4691,
      "Ġtremble": 4692,
      "ĠSqueaky": 4693,
      "Ġwreck": 4694,
      "ĠMummy": 4695,
      "Ġvroom": 4696,
      "Ġhills": 4697,
      "ĠSharing": 4698,
      "Ġsandcastle": 4699,
      "Ġing": 4700,
      "ĠAnnie": 4701,
      "Ġfurther": 4702,
      "Ġcrash": 4703,
      "Ġwhisper": 4704,
      "yth": 4705,
      "Ġsnowball": 4706,
      "Ġbouncy": 4707,
      "Ġexper": 4708,
      "Ġstomach": 4709,
      "Ġstyle": 4710,
      "tain": 4711,
      "Ġluck": 4712,
      "Ġscoop": 4713,
      "Ġobserve": 4714,
      "ythm": 4715,
      "ĠSee": 4716,
      "Ġaftern": 4717,
      "Ġfloated": 4718,
      "Ġnightmare": 4719,
      "ĠAlex": 4720,
      "redient": 4721,
      "Ġentered": 4722,
      "Ġvacation": 4723,
      "Ġingredient": 4724,
      "Ġafternoon": 4725,
      "Ġbother": 4726,
      "Ġcomf": 4727,
      "Ġfollowing": 4728,
      "Ġgrowled": 4729,
      "Ġexcla": 4730,
      "Ġinclude": 4731,
      "Ġincrease": 4732,
      "Ġslap": 4733,
      "ĠFox": 4734,
      "ĠSnowy": 4735,
      "ffic": 4736,
      "ĠGigi": 4737,
      "Ġzigzag": 4738,
      "Ġwhistled": 4739,
      "Ġstruggle": 4740,
      "Ġwisdom": 4741,
      "Ġpalm": 4742,
      "unday": 4743,
      "ĠLola": 4744,
      "Ġnews": 4745,
      "Ġoperation": 4746,
      "Ġstrike": 4747,
      "Ġexclaimed": 4748,
      "uesday": 4749,
      "ĠSunday": 4750,
      "anges": 4751,
      "Ġfolded": 4752,
      "Ġrhythm": 4753,
      "ĠHave": 4754,
      "Ġweight": 4755,
      "ĠBee": 4756,
      "apa": 4757,
      "bbing": 4758,
      "Ġwags": 4759,
      "Ġtraffic": 4760,
      "Ġgaz": 4761,
      "Ġdaisy": 4762,
      "Ġnobody": 4763,
      "Ġingredients": 4764,
      "Sh": 4765,
      "nesday": 4766,
      "ednesday": 4767,
      "Ġheel": 4768,
      "Ġpoppy": 4769,
      "Ġencourage": 4770,
      "Ġpulling": 4771,
      "Ġintroduce": 4772,
      "Ġmoves": 4773,
      "ittens": 4774,
      "Ġchewed": 4775,
      "Ġapart": 4776,
      "Ġpad": 4777,
      "Ġupstairs": 4778,
      "ecting": 4779,
      "Ġsolved": 4780,
      "Woof": 4781,
      "Ġfollows": 4782,
      "Jenny": 4783,
      "With": 4784,
      "Ġhon": 4785,
      "reat": 4786,
      "Ġblueberry": 4787,
      "Ġyawn": 4788,
      "Ġwaving": 4789,
      "illie": 4790,
      "ĠRo": 4791,
      "Ġbelow": 4792,
      "Ġtwisty": 4793,
      "Ġconf": 4794,
      "ĠTuesday": 4795,
      "reeze": 4796,
      "Ġwinning": 4797,
      "Ġcrow": 4798,
      "Ġplanted": 4799,
      "Ġvanished": 4800,
      "ĠBounce": 4801,
      "Ġsafari": 4802,
      "ĠWednesday": 4803,
      "izes": 4804,
      "ifi": 4805,
      "emember": 4806,
      "ĠGod": 4807,
      "Ġagre": 4808,
      "resses": 4809,
      "look": 4810,
      "raged": 4811,
      "Ġscrat": 4812,
      "ĠWhenever": 4813,
      "ĠWho": 4814,
      "ĠFinny": 4815,
      "Ġclosely": 4816,
      "arnt": 4817,
      "ories": 4818,
      "Ġlearnt": 4819,
      "Ġvel": 4820,
      "ĠJoey": 4821,
      "Ġwaffles": 4822,
      "xygen": 4823,
      "Ġracing": 4824,
      "Fred": 4825,
      "Ġtour": 4826,
      "ops": 4827,
      "ĠWally": 4828,
      "ĠGood": 4829,
      "cery": 4830,
      "Everyone": 4831,
      "Ġuniversity": 4832,
      "Ġgrocery": 4833,
      "Ġdigg": 4834,
      "Ġmama": 4835,
      "ĠOwl": 4836,
      "uct": 4837,
      "Ġblink": 4838,
      "Ġgifts": 4839,
      "Ġfireworks": 4840,
      "Ġvelvet": 4841,
      "Ġlandscape": 4842,
      "Ġdigging": 4843,
      "hood": 4844,
      "ĠIs": 4845,
      "ĠSpark": 4846,
      "Ġbackpack": 4847,
      "Ġworth": 4848,
      "Ġmarbles": 4849,
      "Ġcreatures": 4850,
      "hest": 4851,
      "Ġideas": 4852,
      "Ġhurting": 4853,
      "ĠZara": 4854,
      "Le": 4855,
      "Bl": 4856,
      "Ġattention": 4857,
      "Ġneighbour": 4858,
      "Ġquite": 4859,
      "Ġpuzzles": 4860,
      "ĠDog": 4861,
      "Ġsimp": 4862,
      "Ġwashing": 4863,
      "Ġshouting": 4864,
      "Ġwagging": 4865,
      "Ġquietly": 4866,
      "Ġsnuggled": 4867,
      "right": 4868,
      "Ġshined": 4869,
      "Ġteaching": 4870,
      "Ġlemons": 4871,
      "ĠToto": 4872,
      "Ġstair": 4873,
      "Ġdressed": 4874,
      "Ġcaptain": 4875,
      "Ġexercise": 4876,
      "ucked": 4877,
      "Ġworms": 4878,
      "Ġble": 4879,
      "Ġdried": 4880,
      "ĠSu": 4881,
      "ĠPaul": 4882,
      "Ġsailing": 4883,
      "Ġprice": 4884,
      "Ġolives": 4885,
      "Ġwarning": 4886,
      "ĠMittens": 4887,
      "Ġmanage": 4888,
      "Ġrang": 4889,
      "Ġrecognize": 4890,
      "Ġallow": 4891,
      "Ġunderground": 4892,
      "ĠEverything": 4893,
      "ĠJohnny": 4894,
      "mm": 4895,
      "Ġburied": 4896,
      "Ġsits": 4897,
      "Ġseats": 4898,
      "Ġurge": 4899,
      "Because": 4900,
      "ĠGeorge": 4901,
      "ipping": 4902,
      "looking": 4903,
      "'ve": 4904,
      "ecture": 4905,
      "Ġbricks": 4906,
      "Ġmemories": 4907,
      "ddy": 4908,
      "Ġeagerly": 4909,
      "Ġjazz": 4910,
      "Ġimage": 4911,
      "gie": 4912,
      "Ġdresses": 4913,
      "oral": 4914,
      "Ġstamps": 4915,
      "Ġlecture": 4916,
      "isses": 4917,
      "Ġweb": 4918,
      "Ġwob": 4919,
      "Ġinst": 4920,
      "Ġkisses": 4921,
      "Ġsnail": 4922,
      "Ġnowhere": 4923,
      "Ġpaused": 4924,
      "Ġreaches": 4925,
      "Ġmemory": 4926,
      "Not": 4927,
      "Ġcatching": 4928,
      "Ġdeeper": 4929,
      "Ġsprink": 4930,
      "ĠCharlie": 4931,
      "Remy": 4932,
      "Ġpitch": 4933,
      "Ġplays": 4934,
      "Ġlemonade": 4935,
      "Ġhers": 4936,
      "These": 4937,
      "ippy": 4938,
      "Ġcollected": 4939,
      "ah": 4940,
      "Ġsi": 4941,
      "Ġexit": 4942,
      "Ġwatered": 4943,
      "Bella": 4944,
      "Ġlicks": 4945,
      "Ġsorts": 4946,
      "Ġsigns": 4947,
      "Ġpinched": 4948,
      "Ġoh": 4949,
      "ring": 4950,
      "va": 4951,
      "rec": 4952,
      "ĠPinky": 4953,
      "Ġzipped": 4954,
      "Ġbalan": 4955,
      "Ġencouraged": 4956,
      "enry": 4957,
      "Ġcounter": 4958,
      "Ġblankets": 4959,
      "Ġtomatoes": 4960,
      "etch": 4961,
      "Ġhadn": 4962,
      "ĠFifi": 4963,
      "Ġcakes": 4964,
      "Ġspike": 4965,
      "Today": 4966,
      "Ġdisagree": 4967,
      "Ġblood": 4968,
      "Ġtreasures": 4969,
      "sed": 4970,
      "Ġsnapped": 4971,
      "Ġdestroyed": 4972,
      "Ġskills": 4973,
      "Ġbeds": 4974,
      "ived": 4975,
      "Ġbur": 4976,
      "Ġseeing": 4977,
      "Ġfallen": 4978,
      "Ġpeanuts": 4979,
      "Ġwandered": 4980,
      "Ġpunished": 4981,
      "ester": 4982,
      "elvet": 4983,
      "Ġrelease": 4984,
      "Ġmuddy": 4985,
      "Ġflap": 4986,
      "Ġsizes": 4987,
      "ĠLiz": 4988,
      "Ġprett": 4989,
      "ising": 4990,
      "Ġpies": 4991,
      "ccer": 4992,
      "esterday": 4993,
      "Ġbaked": 4994,
      "Ġacorns": 4995,
      "Surpr": 4996,
      "Ġlung": 4997,
      "Ġoxygen": 4998,
      "ĠFinn": 4999,
      "Ġwelcomed": 5000,
      "Ġspoons": 5001,
      "Ġjewels": 5002,
      "nce": 5003,
      "Ġsoccer": 5004,
      "aggie": 5005,
      "Ġpillows": 5006,
      "Ġjogging": 5007,
      "umble": 5008,
      "ĠEventually": 5009,
      "ury": 5010,
      "Ġmarried": 5011,
      "Ġvisited": 5012,
      "Ġvanish": 5013,
      "orted": 5014,
      "ĠPapa": 5015,
      "Ġwinner": 5016,
      "!'": 5017,
      "Ġpaints": 5018,
      "Ġcelebrated": 5019,
      "Ġreceive": 5020,
      "pted": 5021,
      "Ġduring": 5022,
      "icing": 5023,
      "Ġbrings": 5024,
      "Ġworse": 5025,
      "Ġunlocked": 5026,
      "Ġtwirled": 5027,
      "ĠQu": 5028,
      "ups": 5029,
      "reci": 5030,
      "unately": 5031,
      "Ġoranges": 5032,
      "Ġshouldn": 5033,
      "Ġresp": 5034,
      "Ġsliding": 5035,
      "Ġpotatoes": 5036,
      "Ġbreathe": 5037,
      "Ġtremb": 5038,
      "Ġscattered": 5039,
      "Ġgazed": 5040,
      "Ġclimbs": 5041,
      "Ġruin": 5042,
      "Ġgolden": 5043,
      "ictory": 5044,
      "ĠSophie": 5045,
      "rin": 5046,
      "ux": 5047,
      "ĠTuna": 5048,
      "Ġappreci": 5049,
      "ĠDanny": 5050,
      "Ġbones": 5051,
      "Ġpetals": 5052,
      "Ġstuffed": 5053,
      "Ġbleed": 5054,
      "ips": 5055,
      "do": 5056,
      "iers": 5057,
      "Ġdifference": 5058,
      "Ġaccepted": 5059,
      "Jen": 5060,
      "sit": 5061,
      "sters": 5062,
      "Ġkingdom": 5063,
      "Ġstitch": 5064,
      "Ġtwink": 5065,
      "Ġforgotten": 5066,
      "Ġbites": 5067,
      "Ġguessed": 5068,
      "Ġinvitation": 5069,
      "Ġlux": 5070,
      "Ġbrus": 5071,
      "ction": 5072,
      "Ġhits": 5073,
      "Ġbowed": 5074,
      "Ġelephants": 5075,
      "Ġscolded": 5076,
      "Ġtong": 5077,
      "ĠHarry": 5078,
      "ores": 5079,
      "ĠFroggy": 5080,
      "ĠRos": 5081,
      "Ġprints": 5082,
      "Ġeasier": 5083,
      "Ġtoes": 5084,
      "ssible": 5085,
      "Ġzero": 5086,
      "ding": 5087,
      "ĠTony": 5088,
      "ĠLizzy": 5089,
      "ĠBoo": 5090,
      "Ġcollection": 5091,
      "Ġsince": 5092,
      "ĠRock": 5093,
      "Ġunderstanding": 5094,
      "ĠVelvet": 5095,
      "Ġexperience": 5096,
      "Moral": 5097,
      "kins": 5098,
      "Ġsoldiers": 5099,
      "Ġurged": 5100,
      "Ġfro": 5101,
      "Ġbye": 5102,
      "Ġprinter": 5103,
      "Ġraised": 5104,
      "Ġmice": 5105,
      "Ġseason": 5106,
      "Ġpupil": 5107,
      "Ġgrin": 5108,
      "Bobby": 5109,
      "Ġpets": 5110,
      "ĠSmith": 5111,
      "Ġkitty": 5112,
      "Ġfash": 5113,
      "Ġcreated": 5114,
      "Surprise": 5115,
      "chie": 5116,
      "Ġglo": 5117,
      "Ġstraight": 5118,
      "Ġshot": 5119,
      "Ġvoices": 5120,
      "Ġbreaking": 5121,
      "boo": 5122,
      "Ġisn": 5123,
      "Ġattached": 5124,
      "ĠRuby": 5125,
      "Ġfashion": 5126,
      "ĠBefore": 5127,
      "Ġpresents": 5128,
      "Yum": 5129,
      "Ġmeow": 5130,
      "Ġchores": 5131,
      "aped": 5132,
      "avid": 5133,
      "omeday": 5134,
      "Ġsimple": 5135,
      "Ġremained": 5136,
      "Ġours": 5137,
      "Ġweeping": 5138,
      "Ġappear": 5139,
      "Ġreceived": 5140,
      "Blue": 5141,
      "Ġsip": 5142,
      "Ġnone": 5143,
      "Ġvictory": 5144,
      "Ġteasing": 5145,
      "Goodbye": 5146,
      "Ġmarching": 5147,
      "Ġselling": 5148,
      "choo": 5149,
      "ĠKing": 5150,
      "Ġprinted": 5151,
      "Ġacted": 5152,
      "Ġlined": 5153,
      "Ġcras": 5154,
      "Ġluxury": 5155,
      "cus": 5156,
      "ents": 5157,
      "ĠIts": 5158,
      "Ġpears": 5159,
      "Ġdrinks": 5160,
      "Mandy": 5161,
      "rr": 5162,
      "ishing": 5163,
      "Ġsorting": 5164,
      "Ġtrapped": 5165,
      "Ġcutting": 5166,
      "Ġpatterns": 5167,
      "medi": 5168,
      "eath": 5169,
      "Ġsomeday": 5170,
      "Ġsurround": 5171,
      "mediately": 5172,
      "ĠTilly": 5173,
      "ĠEach": 5174,
      "Ġkicking": 5175,
      "Ġmuffins": 5176,
      "aker": 5177,
      "ishes": 5178,
      "Ġmeasured": 5179,
      "Ġdared": 5180,
      "Ġskipping": 5181,
      "Ġmuscles": 5182,
      "fortunately": 5183,
      "Ġrelaxed": 5184,
      "Ġgloves": 5185,
      "ĠBaby": 5186,
      "Ġwatches": 5187,
      "Ġfields": 5188,
      "Ġtore": 5189,
      "Ġhurried": 5190,
      "Ok": 5191,
      "Ġfloating": 5192,
      "umes": 5193,
      "Ġslice": 5194,
      "Ġscreams": 5195,
      "ĠSte": 5196,
      "Ġdecorations": 5197,
      "aded": 5198,
      "Meow": 5199,
      "Cat": 5200,
      "Ġgirls": 5201,
      "Ġfamil": 5202,
      "Ġcartoons": 5203,
      "Ġtonight": 5204,
      "ĠMillie": 5205,
      "Ġshock": 5206,
      "Ġdisagreed": 5207,
      "Ġtongue": 5208,
      "walk": 5209,
      "ĠMaria": 5210,
      "ĠSlow": 5211,
      "vest": 5212,
      "Ġalright": 5213,
      "Ġladyb": 5214,
      "Ġemer": 5215,
      "ĠHope": 5216,
      "Ġbrid": 5217,
      "Ġrested": 5218,
      "ĠThese": 5219,
      "ĠKate": 5220,
      "Ġsidewalk": 5221,
      "Ġwhistling": 5222,
      "Ġcostumes": 5223,
      "akes": 5224,
      "Ġfishing": 5225,
      "Ġbang": 5226,
      "Ġwest": 5227,
      "osed": 5228,
      "Ġmelted": 5229,
      "Ġknown": 5230,
      "Ġwaist": 5231,
      "Ġsorted": 5232,
      "Ġlips": 5233,
      "\",": 5234,
      "utter": 5235,
      "Ġfiref": 5236,
      "Ġbegged": 5237,
      "Ġfed": 5238,
      "Ġspit": 5239,
      "Ġcolours": 5240,
      "ĠPip": 5241,
      "Ġmouths": 5242,
      "ĠFollow": 5243,
      "ety": 5244,
      "Ġbridges": 5245,
      "ĠSandy": 5246,
      "Ġdrinking": 5247,
      "Ġflat": 5248,
      "Ġtrave": 5249,
      "Ġshadows": 5250,
      "Ġringing": 5251,
      "Ġlaid": 5252,
      "Ġappro": 5253,
      "Ġtwigs": 5254,
      "eep": 5255,
      "une": 5256,
      "Ġsetting": 5257,
      "Ġpra": 5258,
      "Ġeast": 5259,
      "ĠBoth": 5260,
      "ission": 5261,
      "Ġperfectly": 5262,
      "ĠMay": 5263,
      "Ġmoments": 5264,
      "ĠZigzag": 5265,
      "Ġmentioned": 5266,
      "anna": 5267,
      "Momo": 5268,
      "Ġworks": 5269,
      "Ġresting": 5270,
      "Ġmixing": 5271,
      "ĠSuzy": 5272,
      "Ġslapped": 5273,
      "Ġheaded": 5274,
      "Ġcontest": 5275,
      "Ġpermission": 5276,
      "Ġinstr": 5277,
      "ded": 5278,
      "Ġbreeze": 5279,
      "Ġcones": 5280,
      "Ġplaytime": 5281,
      "Ġesc": 5282,
      "Ġhighest": 5283,
      "ĠSomeone": 5284,
      "ĠAm": 5285,
      "Ġimmediately": 5286,
      "Ġcrunch": 5287,
      "Ġstro": 5288,
      "Ġofficer": 5289,
      "Ġroots": 5290,
      "Ġpeaches": 5291,
      "Ġlets": 5292,
      "Ġcub": 5293,
      "Really": 5294,
      "Ha": 5295,
      "Happy": 5296,
      "Ġwiggle": 5297,
      "Ġtucked": 5298,
      "ĠBo": 5299,
      "Ġstrang": 5300,
      "ĠChicky": 5301,
      "ther": 5302,
      "ored": 5303,
      "Ġlick": 5304,
      "Ġladybug": 5305,
      "oved": 5306,
      "Ġlines": 5307,
      "anny": 5308,
      "Ġinvest": 5309,
      "Ġago": 5310,
      "Ġstealing": 5311,
      "Ġsneak": 5312,
      "Ġbrushes": 5313,
      "ĠRosie": 5314,
      "xture": 5315,
      "Ġfetch": 5316,
      "Ġtexture": 5317,
      "Ġordered": 5318,
      "Ġinvestig": 5319,
      "Ġitem": 5320,
      "Ġscratched": 5321,
      "Ġwiz": 5322,
      "Ġsupposed": 5323,
      "Ġsettled": 5324,
      "Ġrevealed": 5325,
      "bers": 5326,
      "ĠLater": 5327,
      "abies": 5328,
      "Ġamazement": 5329,
      "Ġresult": 5330,
      "'.": 5331,
      "please": 5332,
      "ship": 5333,
      "ĠFrog": 5334,
      "Ġtheirs": 5335,
      "Andy": 5336,
      "Ġsafety": 5337,
      "Ġstrangers": 5338,
      "ids": 5339,
      "Ġrul": 5340,
      "ĠJames": 5341,
      "Ġlands": 5342,
      "ides": 5343,
      "Ġripped": 5344,
      "Ġcrawling": 5345,
      "Mmm": 5346,
      "Would": 5347,
      "oot": 5348,
      "Ġinch": 5349,
      "Ġsore": 5350,
      "Ġwaits": 5351,
      "Ġmeasuring": 5352,
      "nie": 5353,
      "zing": 5354,
      "Ġachie": 5355,
      "Ġgrant": 5356,
      "Ġmonsters": 5357,
      "Ġkneeled": 5358,
      "Leo": 5359,
      "Ġinvestigate": 5360,
      "Tr": 5361,
      "Ġsix": 5362,
      "Ġbabies": 5363,
      "Ġhesit": 5364,
      "Ġimportance": 5365,
      "Ġfiremen": 5366,
      "Ġchewing": 5367,
      "iggy": 5368,
      "Ġmatched": 5369,
      "Ġbringing": 5370,
      "kelly": 5371,
      "antly": 5372,
      "iggly": 5373,
      "Ġmotion": 5374,
      "Ġstudied": 5375,
      "Bu": 5376,
      "Ġdire": 5377,
      "omas": 5378,
      "Ġyouth": 5379,
      "ĠMo": 5380,
      "Ġshed": 5381,
      "allen": 5382,
      "!\",": 5383,
      "ĠJul": 5384,
      "Ġmarks": 5385,
      "ĠNot": 5386,
      "ĠUncle": 5387,
      ".'": 5388,
      "ls": 5389,
      "Ġchallen": 5390,
      "Ġtickle": 5391,
      "Ġwizard": 5392,
      "Bird": 5393,
      "irts": 5394,
      "Ġserved": 5395,
      "Ġsilence": 5396,
      "Ġturning": 5397,
      "Ġmelting": 5398,
      "Ġtrembling": 5399,
      "osity": 5400,
      "Ġadmir": 5401,
      "Ġnails": 5402,
      "izing": 5403,
      "Ġpiles": 5404,
      "Ġtickets": 5405,
      "Ġthrill": 5406,
      "ĠDavid": 5407,
      "Ġkeys": 5408,
      "gency": 5409,
      "sing": 5410,
      "Ġarea": 5411,
      "Ġopin": 5412,
      "Ġkeeps": 5413,
      "Ġwooden": 5414,
      "Ġpeel": 5415,
      "ĠMilly": 5416,
      "Ġknelt": 5417,
      "Ġflav": 5418,
      "Ġguy": 5419,
      "Ġtrips": 5420,
      "ĠAn": 5421,
      "Ġstrings": 5422,
      "Ġshopping": 5423,
      "Ġleader": 5424,
      "aved": 5425,
      "Ġnapping": 5426,
      "Ġhated": 5427,
      "Ġpupp": 5428,
      "Ġsecrets": 5429,
      "Ġanswers": 5430,
      "Ġburning": 5431,
      "Ġdads": 5432,
      "Ġfoods": 5433,
      "Ġquack": 5434,
      "embers": 5435,
      "Ġremembers": 5436,
      "Emily": 5437,
      "ĠSky": 5438,
      "ĠRocky": 5439,
      "Ġbeamed": 5440,
      "Ġeats": 5441,
      "Ġdraws": 5442,
      "ĠOut": 5443,
      "Ġphot": 5444,
      "ĠBouncy": 5445,
      "ĠHenry": 5446,
      "Ġtwin": 5447,
      "Ġherbs": 5448,
      "Ġcuddled": 5449,
      "Ġcurled": 5450,
      "Ġdisturbed": 5451,
      "Ġsucceeded": 5452,
      "Ġmister": 5453,
      "Ġgust": 5454,
      "ĠSkelly": 5455,
      "Ġpearl": 5456,
      "irring": 5457,
      "Ġpraised": 5458,
      "Boo": 5459,
      "hello": 5460,
      "Ġbroom": 5461,
      "Ġwonders": 5462,
      "Ġescaped": 5463,
      "Ella": 5464,
      "Ġwink": 5465,
      "ena": 5466,
      "ira": 5467,
      "Ġthreat": 5468,
      "ĠFirst": 5469,
      "Ġbravely": 5470,
      "Ġwrit": 5471,
      "Ġscooped": 5472,
      "ĠHappy": 5473,
      "isten": 5474,
      "Ġchirped": 5475,
      "Ġsings": 5476,
      "ogo": 5477,
      "Ġtouching": 5478,
      "Ġcrunchy": 5479,
      "ĠDr": 5480,
      "ĠSomething": 5481,
      "Ġshooting": 5482,
      "Peter": 5483,
      "Ġpoking": 5484,
      "plash": 5485,
      "Ġspending": 5486,
      "Ġwarmth": 5487,
      "Ġradishes": 5488,
      "mother": 5489,
      "Ġboo": 5490,
      "Tw": 5491,
      "hind": 5492,
      "ped": 5493,
      "Ġweighed": 5494,
      "Ġvet": 5495,
      "Ġtastes": 5496,
      "Ġsparkling": 5497,
      "Ġsneaky": 5498,
      "Ġwanting": 5499,
      "ĠBug": 5500,
      "Ġsoared": 5501,
      "Ġbleeding": 5502,
      "Ġapproached": 5503,
      "Ġruler": 5504,
      "ĠHop": 5505,
      "Ġsoaked": 5506,
      "Ġstripes": 5507,
      "unnies": 5508,
      "Ġappreciate": 5509,
      "Ġemergency": 5510,
      "act": 5511,
      "Ġstirring": 5512,
      "Ġcollecting": 5513,
      "Ġdinosaurs": 5514,
      "Ġbloomed": 5515,
      "Ġrides": 5516,
      "ĠChe": 5517,
      "Sammy": 5518,
      "Ġpolished": 5519,
      "ĠRobby": 5520,
      "Ġphotos": 5521,
      "loe": 5522,
      "ues": 5523,
      "ĠMe": 5524,
      "Ġfrost": 5525,
      "Ġheroes": 5526,
      "ĠPepper": 5527,
      "Eventually": 5528,
      "fied": 5529,
      "Ġbunnies": 5530,
      "Ġdoggy": 5531,
      "Ġwhatever": 5532,
      "Ġgrey": 5533,
      "Ġdecides": 5534,
      "Ġslim": 5535,
      "ĠStar": 5536,
      "ĠSlowly": 5537,
      "Un": 5538,
      "Ġpots": 5539,
      "Ġcomple": 5540,
      "Ġfamilies": 5541,
      "Jake": 5542,
      "Somet": 5543,
      "oh": 5544,
      "Ġpride": 5545,
      "Ġanytime": 5546,
      "Ġchef": 5547,
      "Ġfolding": 5548,
      "ĠStitch": 5549,
      "Ġneighborhood": 5550,
      "Ġbeat": 5551,
      "Ġsisters": 5552,
      "Ġprec": 5553,
      "ĠFrank": 5554,
      "Ġpedals": 5555,
      "Ġrecognized": 5556,
      "Ġsides": 5557,
      "ino": 5558,
      "Ġglowed": 5559,
      "ĠStop": 5560,
      "Ġagreement": 5561,
      "ĠSqu": 5562,
      "ĠWiggly": 5563,
      "Ġroads": 5564,
      "Ġsparkle": 5565,
      "ĠClara": 5566,
      "Remember": 5567,
      "Ġdecision": 5568,
      "Ġacting": 5569,
      "Ġstudying": 5570,
      "...": 5571,
      "Ġsiren": 5572,
      "Ollie": 5573,
      "Ġgained": 5574,
      "Ġnoon": 5575,
      "Ġbuzzing": 5576,
      "Ġslimy": 5577,
      "Ġfut": 5578,
      "Ġhen": 5579,
      "Ġplayroom": 5580,
      "ĠMaggie": 5581,
      "urry": 5582,
      "Ġworker": 5583,
      "Ġstruggled": 5584,
      "Ġfuture": 5585,
      "ales": 5586,
      "rs": 5587,
      "Ġdecorated": 5588,
      "ĠPippa": 5589,
      "Ġhonk": 5590,
      "Ġtoss": 5591,
      "amie": 5592,
      "ĠBree": 5593,
      "Ġzooming": 5594,
      "Ġmittens": 5595,
      "ĠSteve": 5596,
      "Ġawe": 5597,
      "Ġhi": 5598,
      "ana": 5599,
      "Ġobe": 5600,
      "ĠAb": 5601,
      "ĠAunt": 5602,
      "Ġowned": 5603,
      "Ġclaps": 5604,
      "Ġrecorded": 5605,
      "Ġthrilled": 5606,
      "Ġhappiest": 5607,
      "ĠLike": 5608,
      "Ġloose": 5609,
      "Ġbehaved": 5610,
      "Ġsprinkles": 5611,
      "Ġbeside": 5612,
      "Ġshirts": 5613,
      "Ġgoodnight": 5614,
      "ĠRabbit": 5615,
      "ĠGreen": 5616,
      "Ġairpl": 5617,
      "Ġnaps": 5618,
      "ĠBirdie": 5619,
      "Ġrepeated": 5620,
      "Ġgrinned": 5621,
      "Ġtricked": 5622,
      "Ġspaceship": 5623,
      "Ġfrosting": 5624,
      "ĠX": 5625,
      "ided": 5626,
      "riends": 5627,
      "ĠBeep": 5628,
      "Ġprepared": 5629,
      "Cl": 5630,
      "Ġpause": 5631,
      "ĠAva": 5632,
      "Ġdownstairs": 5633,
      "Ġrocking": 5634,
      "ĠGogo": 5635,
      "Ġpoems": 5636,
      "Ġcomfy": 5637,
      "Ġswims": 5638,
      "ĠAlways": 5639,
      "Ġcrashed": 5640,
      "Ġsurrounded": 5641,
      "lier": 5642,
      "Ġdot": 5643,
      "oming": 5644,
      "Ġeight": 5645,
      "oys": 5646,
      "Ġrubbing": 5647,
      "Ġbuildings": 5648,
      "Ġspiders": 5649,
      "Or": 5650,
      "Ġnicer": 5651,
      "allow": 5652,
      "usty": 5653,
      "Ġkindly": 5654,
      "Ġapologize": 5655,
      "Ġprecious": 5656,
      "Ah": 5657,
      "Have": 5658,
      "Ġeff": 5659,
      "Ġscaring": 5660,
      "Ġyelling": 5661,
      "Ġapologized": 5662,
      "Ġstaying": 5663,
      "Ġspraying": 5664,
      "Ġhorns": 5665,
      "Ġrespons": 5666,
      "Ġobey": 5667,
      "Ġbelly": 5668,
      "Ġstare": 5669,
      "Ġstruck": 5670,
      "ĠGr": 5671,
      "Ġtugged": 5672,
      "ĠBlink": 5673,
      "Ġprotected": 5674,
      "Ġsighs": 5675,
      "Yummy": 5676,
      "ib": 5677,
      "Ġloving": 5678,
      "ĠDid": 5679,
      "Ġcomforted": 5680,
      "ĠMat": 5681,
      "Ġsmiley": 5682,
      "Ġparties": 5683,
      "Ġbalancing": 5684,
      "Ġcatches": 5685,
      "Ġpossible": 5686,
      "joyed": 5687,
      "Ġsteep": 5688,
      "enty": 5689,
      "Whiskers": 5690,
      "Ġoverjoyed": 5691,
      "Ġourselves": 5692,
      "Ġsneaked": 5693,
      "Ġgrandmother": 5694,
      "First": 5695,
      "Ġyesterday": 5696,
      "Ġexpected": 5697,
      "Ġglitter": 5698,
      "Ġearlier": 5699,
      "Ġpouring": 5700,
      "aws": 5701,
      "Sometimes": 5702,
      "Sp": 5703,
      "ĠJe": 5704,
      "Ġcontinue": 5705,
      "Ġmachines": 5706,
      "achel": 5707,
      "Ġwrites": 5708,
      "Ġwoof": 5709,
      "Ġlily": 5710,
      "isdom": 5711,
      "indy": 5712,
      "Ġbottles": 5713,
      "ays": 5714,
      "atie": 5715,
      "Ġprop": 5716,
      "Ġneighbors": 5717,
      "ĠSpring": 5718,
      "Susie": 5719,
      "Ġlimes": 5720,
      "ĠHoot": 5721,
      "Ġboom": 5722,
      "ica": 5723,
      "Ġopening": 5724,
      "Ġplanets": 5725,
      "Ġopinion": 5726,
      "Ġbrushed": 5727,
      "Ġhugging": 5728,
      "Ġsnowballs": 5729,
      "Ġadmiring": 5730,
      "Ro": 5731,
      "use": 5732,
      "Ġpolishing": 5733,
      "Ġrefres": 5734,
      "Ġeffort": 5735,
      "Ġloaded": 5736,
      "Ġsausages": 5737,
      "Ġcompleted": 5738,
      "Ġwid": 5739,
      "Ġsting": 5740,
      "Ġgaze": 5741,
      "Ġhissed": 5742,
      "Ġrele": 5743,
      "Ġgiraff": 5744,
      "Ġcuriosity": 5745,
      "Ġpurred": 5746,
      "Ġgiraffes": 5747,
      "Ġlearns": 5748,
      "Ġpretends": 5749,
      "Ġpaintings": 5750,
      "Ġteaches": 5751,
      "Ġsparkles": 5752,
      "Ġchases": 5753,
      "Ġribbons": 5754,
      "Ex": 5755,
      "Ġbead": 5756,
      "Ġrocked": 5757,
      "Ġseesaw": 5758,
      "Ġdragons": 5759,
      "Ġsafer": 5760,
      "Ġmovies": 5761,
      "igail": 5762,
      "ĠAbby": 5763,
      "Ġhardly": 5764,
      "Ġwherever": 5765,
      "Ġcuts": 5766,
      "Ġcircus": 5767,
      "Ġfasc": 5768,
      "Ġclearing": 5769,
      "Ġcompany": 5770,
      "Ġcrabs": 5771,
      "Ġpockets": 5772,
      "Ġorganizing": 5773,
      "Ġstruggling": 5774,
      "ud": 5775,
      "Ġdrives": 5776,
      "Ġpastries": 5777,
      "Ġpastels": 5778,
      "Ġdemanded": 5779,
      "ppers": 5780,
      "Ġrings": 5781,
      "Ġseems": 5782,
      "ĠLeave": 5783,
      "Ġargued": 5784,
      "ler": 5785,
      "wh": 5786,
      "Ġargu": 5787,
      "Ġzookeeper": 5788,
      "Ġpebbles": 5789,
      "Ġcough": 5790,
      "Ġteased": 5791,
      "Ġdiscovery": 5792,
      "Ġpadd": 5793,
      "Ġarguing": 5794,
      "Ducky": 5795,
      "jam": 5796,
      "Ġrealize": 5797,
      "zes": 5798,
      "Ġtim": 5799,
      "ities": 5800,
      "Ġcaut": 5801,
      "Ġbeard": 5802,
      "Rob": 5803,
      "Rex": 5804,
      "zen": 5805,
      "Ġsunlight": 5806,
      "inkle": 5807,
      "Ġsplashes": 5808,
      "Ġactions": 5809,
      "Ġsmallest": 5810,
      "Ġflutter": 5811,
      "Ġkeeper": 5812,
      "ĠRay": 5813,
      "Ġforgi": 5814,
      "Ġsweeties": 5815,
      "Ġcuddle": 5816,
      "Ġchallenge": 5817,
      "During": 5818,
      "Ġgathering": 5819,
      "Ġfascin": 5820,
      "Ġunited": 5821,
      "Ġwondering": 5822,
      "Ġshivered": 5823,
      "Ġreply": 5824,
      "Ġwins": 5825,
      "Ġlied": 5826,
      "Ġsoaring": 5827,
      "Ġroaring": 5828,
      "Ġtails": 5829,
      "Ġeagle": 5830,
      "ĠBrownie": 5831,
      "Ġwiggled": 5832,
      "ĠSplash": 5833,
      "ĠThomas": 5834,
      "Ġtallest": 5835,
      "Ġbowls": 5836,
      "Ġapplauded": 5837,
      "Poppy": 5838,
      "dam": 5839,
      "uke": 5840,
      "ĠWisdom": 5841,
      "ĠDino": 5842,
      "Ġpeas": 5843,
      "Ġpeered": 5844,
      "ĠPrin": 5845,
      "Ġvisiting": 5846,
      "Ġmatching": 5847,
      "Ġscru": 5848,
      "hee": 5849,
      "edding": 5850,
      "ĠJess": 5851,
      "Ġbedtime": 5852,
      "Ġuses": 5853,
      "Ġrip": 5854,
      "Ġstretching": 5855,
      "Ġfrozen": 5856,
      "Ġairplane": 5857,
      "ibb": 5858,
      "ĠDare": 5859,
      "ĠCra": 5860,
      "Ġcrumb": 5861,
      "Ġsitu": 5862,
      "Ġpatience": 5863,
      "Ġactually": 5864,
      "Ġpencils": 5865,
      "Ġbank": 5866,
      "ĠWater": 5867,
      "Ġpracticing": 5868,
      "ĠBeing": 5869,
      "Ġknights": 5870,
      "Ġreleased": 5871,
      "Uh": 5872,
      "Ġremoved": 5873,
      "ha": 5874,
      "ien": 5875,
      "Ġthird": 5876,
      "Ġann": 5877,
      "Thanks": 5878,
      "ĠRemember": 5879,
      "Ġdarker": 5880,
      "ĠZoe": 5881,
      "Achoo": 5882,
      "ĠLove": 5883,
      "Ġweren": 5884,
      "ĠWatch": 5885,
      "Ġdeser": 5886,
      "Ġdiving": 5887,
      "ĠSkip": 5888,
      "Ġtraveled": 5889,
      "Ġhomework": 5890,
      "ĠKeep": 5891,
      "Ġlogs": 5892,
      "Ġcurtains": 5893,
      "Ġtasks": 5894,
      "Ġcurly": 5895,
      "Watch": 5896,
      "Ġdipped": 5897,
      "Ġma": 5898,
      "Ġmisses": 5899,
      "Ġpowers": 5900,
      "Ġawake": 5901,
      "Ġbegin": 5902,
      "Ġprettiest": 5903,
      "Tina": 5904,
      "usan": 5905,
      "ĠPut": 5906,
      "Ġmountains": 5907,
      "Ġagrees": 5908,
      "Ġitems": 5909,
      "Ġgotten": 5910,
      "Ġwhose": 5911,
      "Ġtalent": 5912,
      "Ġsticking": 5913,
      "Ġpetted": 5914,
      "Ġdragged": 5915,
      "Ġarrive": 5916,
      "ĠBehind": 5917,
      "Ġhelmets": 5918,
      "Ġprettier": 5919,
      "Ġwedding": 5920,
      "uckily": 5921,
      "Ġfears": 5922,
      "Ġcracked": 5923,
      "Ġflags": 5924,
      "Ġpenguins": 5925,
      "Fr": 5926,
      "Luna": 5927,
      "Ġwound": 5928,
      "Ġbunch": 5929,
      "Ġoutdo": 5930,
      "Ġperched": 5931,
      "Ġsweat": 5932,
      "Ġweeks": 5933,
      "Ġresponsible": 5934,
      "Silly": 5935,
      "Ġlap": 5936,
      "Ġreplaced": 5937,
      "Ġprotecting": 5938,
      "Ġbeads": 5939,
      "jamas": 5940,
      "--": 5941,
      "Ġonwards": 5942,
      "Ġcans": 5943,
      "Ġmane": 5944,
      "ĠFish": 5945,
      "Ġpeppers": 5946,
      "Ġguns": 5947,
      "Ġquarreling": 5948,
      "annah": 5949,
      "Ġseas": 5950,
      "Ġsled": 5951,
      "ĠCar": 5952,
      "Ġfara": 5953,
      "ining": 5954,
      "seek": 5955,
      "Ġgoals": 5956,
      "umm": 5957,
      "ĠJu": 5958,
      "Ġaccom": 5959,
      "Ġshrug": 5960,
      "Ġforks": 5961,
      "Grace": 5962,
      "Ġfaraway": 5963,
      "ido": 5964,
      "Ġhelpers": 5965,
      "aster": 5966,
      "Ġrainbows": 5967,
      "Ġcomplained": 5968,
      "Ġinstruct": 5969,
      "ern": 5970,
      "ilo": 5971,
      "Ġsadness": 5972,
      "Ġsatis": 5973,
      "Ġsnakes": 5974,
      "ĠZiggy": 5975,
      "Ġbuckets": 5976,
      "Ġminerals": 5977,
      "Ġdied": 5978,
      "Ġwasted": 5979,
      "ĠAlly": 5980,
      "Ġpajamas": 5981,
      "ĠJosh": 5982,
      "Ġprayer": 5983,
      "Ġproject": 5984,
      "Fo": 5985,
      "ords": 5986,
      "Ġsteady": 5987,
      "Ġreminder": 5988,
      "Ġgems": 5989,
      "ĠQuack": 5990,
      "njoy": 5991,
      "Ġoutdoors": 5992,
      "Ġaccompl": 5993,
      "Tiny": 5994,
      "ĠJoy": 5995,
      "Ġwrist": 5996,
      "Ġrefuse": 5997,
      "Ġachieve": 5998,
      "True": 5999,
      "Bad": 6000,
      "Dave": 6001,
      "ashed": 6002,
      "ĠRachel": 6003,
      "Ġpointy": 6004,
      "Johnny": 6005,
      "Ġdolphins": 6006,
      "Ġornaments": 6007,
      "sses": 6008,
      "Ġfault": 6009,
      "Ġexamined": 6010,
      "Ġchirping": 6011,
      "Mar": 6012,
      "uly": 6013,
      "irm": 6014,
      "ĠBecause": 6015,
      "ĠOur": 6016,
      "Ġnapkins": 6017,
      "Ġdusty": 6018,
      "Ġcomplaining": 6019,
      "Bunny": 6020,
      "anted": 6021,
      "agull": 6022,
      "Ġexact": 6023,
      "ĠFriends": 6024,
      "Ġglasses": 6025,
      "Ġcontain": 6026,
      "ĠZero": 6027,
      "Ġdesert": 6028,
      "Stay": 6029,
      "Ġpans": 6030,
      "Ġcopy": 6031,
      "Ġintroduc": 6032,
      "ĠJulie": 6033,
      "Paul": 6034,
      "Toby": 6035,
      "ais": 6036,
      "die": 6037,
      "lay": 6038,
      "Ġbare": 6039,
      "Ġdam": 6040,
      "Ġroses": 6041,
      "Ġparked": 6042,
      "Ġrolls": 6043,
      "Ġfairies": 6044,
      "lowers": 6045,
      "Doggy": 6046,
      "ĠBy": 6047,
      "Ġtruly": 6048,
      "Ġusual": 6049,
      "ĠEveryday": 6050,
      "Ġreaching": 6051,
      "ĠChloe": 6052,
      "Ġactiv": 6053,
      "ĠRover": 6054,
      "Ġguys": 6055,
      "Ġinstructions": 6056,
      "George": 6057,
      "Ġcause": 6058,
      "Ġstaring": 6059,
      "ĠRolly": 6060,
      "Ġvillag": 6061,
      "Ġpacking": 6062,
      "Ġrequested": 6063,
      "ĠSquirrel": 6064,
      "Ġcent": 6065,
      "ĠBeth": 6066,
      "Ġeveryday": 6067,
      "Ġjoking": 6068,
      "ĠOlly": 6069,
      "Ġpatted": 6070,
      "Ġrubs": 6071,
      "Ġdestination": 6072,
      "Ġscrubbed": 6073,
      "ĠPaws": 6074,
      "Ġrule": 6075,
      "Ġsneezing": 6076,
      "Grandpa": 6077,
      "Ġcautious": 6078,
      "nies": 6079,
      "neath": 6080,
      "ĠJamie": 6081,
      "Ġslam": 6082,
      "undred": 6083,
      "ĠQuick": 6084,
      "Hold": 6085,
      "bl": 6086,
      "ĠSure": 6087,
      "ĠLou": 6088,
      "ĠBye": 6089,
      "uest": 6090,
      "Ġscreaming": 6091,
      "Ġgiggling": 6092,
      "Ġrescued": 6093,
      "Ġincluded": 6094,
      "Ġneighbourhood": 6095,
      "?'": 6096,
      "ĠWelcome": 6097,
      "Ġstole": 6098,
      "Ġlistens": 6099,
      "Ġhops": 6100,
      "Ġsnowmen": 6101,
      "Ġcrept": 6102,
      "Ġteamwork": 6103,
      "Ġpumpkins": 6104,
      "Time": 6105,
      "gers": 6106,
      "Ġhitting": 6107,
      "Ġguest": 6108,
      "ĠSw": 6109,
      "Ġstumble": 6110,
      "Ġseagull": 6111,
      "ĠCudd": 6112,
      "Ġkites": 6113,
      "Ġcreation": 6114,
      "Ġbaker": 6115,
      "Ġhundred": 6116,
      "ĠSorry": 6117,
      "ora": 6118,
      "esome": 6119,
      "inda": 6120,
      "Ġvent": 6121,
      "Ġreluct": 6122,
      "Ġblows": 6123,
      "ĠTwo": 6124,
      "Ġconfl": 6125,
      "Ġfascinated": 6126,
      "Ew": 6127,
      "eah": 6128,
      "ĠBark": 6129,
      "Benny": 6130,
      "Ġcontro": 6131,
      "Ġinviting": 6132,
      "Ġtwirl": 6133,
      "Ġfirefight": 6134,
      "Ġvillagers": 6135,
      "cakes": 6136,
      "Ġpout": 6137,
      "Ġstern": 6138,
      "ĠAnt": 6139,
      "Ġbecoming": 6140,
      "Ġpennies": 6141,
      "ooped": 6142,
      "Ġsolut": 6143,
      "Ġawesome": 6144,
      "Annie": 6145,
      "Ġpaddle": 6146,
      "Ġwobbled": 6147,
      "Some": 6148,
      "Ġmes": 6149,
      "icorn": 6150,
      "ĠJan": 6151,
      "ĠJones": 6152,
      "Ġchips": 6153,
      "Ġunicorn": 6154,
      "Ġgranted": 6155,
      "Ġtables": 6156,
      "Ġpassing": 6157,
      "ĠChr": 6158,
      "laire": 6159,
      "Ġconflict": 6160,
      "bie": 6161,
      "Ġdar": 6162,
      "Ġyourselves": 6163,
      "Ġbeneath": 6164,
      "Charlie": 6165,
      "ners": 6166,
      "Ġneither": 6167,
      "ĠFido": 6168,
      "Ġusually": 6169,
      "Ġpromises": 6170,
      "Ġmasks": 6171,
      "Pete": 6172,
      "ĠPo": 6173,
      "Ġbrand": 6174,
      "ĠGet": 6175,
      "Ġrecording": 6176,
      "Ġinsist": 6177,
      "...\"": 6178,
      "Ġtimer": 6179,
      "Ġcrumbs": 6180,
      "Ġexactly": 6181,
      "James": 6182,
      "you": 6183,
      "ĠSad": 6184,
      "anes": 6185,
      "Ġshoulders": 6186,
      "Ġquacked": 6187,
      "ĠWhist": 6188,
      "Ġfilling": 6189,
      "ĠHowever": 6190,
      "Ġdelivered": 6191,
      "Ġconfident": 6192,
      "Ġbalanced": 6193,
      "ĠAbigail": 6194,
      "Fine": 6195,
      "Miss": 6196,
      "Soph": 6197,
      "Ġspong": 6198,
      "Ġreads": 6199,
      "Ġmission": 6200,
      "Ġadding": 6201,
      "Ġvehicles": 6202,
      "ĠCuddles": 6203,
      "Mike": 6204,
      "Ġfirm": 6205,
      "Ġshelves": 6206,
      "ĠWink": 6207,
      "Ġstartled": 6208,
      "Ġsupplies": 6209,
      "dies": 6210,
      "ados": 6211,
      "ĠWant": 6212,
      "anging": 6213,
      "ĠSnap": 6214,
      "Ġlollipops": 6215,
      "Ġvideos": 6216,
      "Ġgrowling": 6217,
      "Ġsights": 6218,
      "Dog": 6219,
      "Ġremembering": 6220,
      "Ġbars": 6221,
      "Ġentire": 6222,
      "Ġcheering": 6223,
      "Ġpoliceman": 6224,
      "Ġruining": 6225,
      "Ġsituation": 6226,
      "Lola": 6227,
      "Ġ1": 6228,
      "Ġheav": 6229,
      "Ġchuck": 6230,
      "ĠEnjoy": 6231,
      "Ġunderneath": 6232,
      "Ġwinked": 6233,
      "Ġdived": 6234,
      "Ġpraying": 6235,
      "Ġarrows": 6236,
      "Ġhealed": 6237,
      "Ġtriangles": 6238,
      "Ġonions": 6239,
      "Ġdirection": 6240,
      "An": 6241,
      "Sn": 6242,
      "coon": 6243,
      "fl": 6244,
      "ĠSusan": 6245,
      "Ġvowed": 6246,
      "Ġcomm": 6247,
      "Ġjoked": 6248,
      "ĠCatty": 6249,
      "Ġcandies": 6250,
      "Ġtowels": 6251,
      "Ġbatteries": 6252,
      "Ġreluctantly": 6253,
      "Oops": 6254,
      "ĠTree": 6255,
      "ĠJilly": 6256,
      "Ġtraded": 6257,
      "Ġowners": 6258,
      "Ġpiggy": 6259,
      "Ġscarves": 6260,
      "Ġwires": 6261,
      "Ġloading": 6262,
      "Ġobserved": 6263,
      "arter": 6264,
      "ley": 6265,
      "ammy": 6266,
      "ĠMin": 6267,
      "Ġsmarter": 6268,
      "Ġcloses": 6269,
      "angled": 6270,
      "Ġavocados": 6271,
      "Ġlibrarian": 6272,
      "Chirpy": 6273,
      "Unfortunately": 6274,
      "Ġbarely": 6275,
      "Ġsponge": 6276,
      "Que": 6277,
      "Ġtune": 6278,
      "Ġwindy": 6279,
      "Ġfarther": 6280,
      "Ġlighter": 6281,
      "Ġleaning": 6282,
      "Ġknocks": 6283,
      "ĠJeff": 6284,
      "Ġcontrol": 6285,
      "Yeah": 6286,
      "ky": 6287,
      "Ġknees": 6288,
      "anta": 6289,
      "Ġyells": 6290,
      "Ġpatiently": 6291,
      "Ġclowns": 6292,
      "Ġsqueal": 6293,
      "Ġsuperheroes": 6294,
      "ayla": 6295,
      "amb": 6296,
      "?\",": 6297,
      "Ġleast": 6298,
      "Ġspeaking": 6299,
      "Ġrockets": 6300,
      "Ġpigeons": 6301,
      "Ġfroze": 6302,
      "Polly": 6303,
      "Ru": 6304,
      "Ġscales": 6305,
      "though": 6306,
      "ĠTwinkle": 6307,
      "Ġwandering": 6308,
      "Ġrefreshed": 6309,
      "Ġintroduced": 6310,
      "Great": 6311,
      "Ġties": 6312,
      "Ġdent": 6313,
      "indr": 6314,
      "ĠFor": 6315,
      "Ġchat": 6316,
      "Ġgreet": 6317,
      "ĠThose": 6318,
      "bbie": 6319,
      "ĠRich": 6320,
      "avi": 6321,
      "Joey": 6322,
      "oline": 6323,
      "Ġcaused": 6324,
      "Ġrelief": 6325,
      "Ġpuppet": 6326,
      "eed": 6327,
      "go": 6328,
      "ĠBop": 6329,
      "ĠMoo": 6330,
      "Ġfaced": 6331,
      "Ġbravery": 6332,
      "Ġslower": 6333,
      "Ġexplorers": 6334,
      "Ġkicks": 6335,
      "Ġdrums": 6336,
      "Ġsquares": 6337,
      "Our": 6338,
      "sm": 6339,
      "Ġast": 6340,
      "ĠJessie": 6341,
      "Ġswooped": 6342,
      "Ġbadge": 6343,
      "Ġstays": 6344,
      "Ġbehaving": 6345,
      "Ġraindr": 6346,
      "ĠJenna": 6347,
      "Ġblooming": 6348,
      "Ġimproved": 6349,
      "Ġcobwebs": 6350,
      "cuse": 6351,
      "Ġthro": 6352,
      "Ġthorn": 6353,
      "Ġplenty": 6354,
      "Ġgrowls": 6355,
      "ĠCopper": 6356,
      "Ġdots": 6357,
      "Ġpaddled": 6358,
      "ĠPrincess": 6359,
      "Ġventured": 6360,
      "Queen": 6361,
      "Ġthroat": 6362,
      "Milly": 6363,
      "Run": 6364,
      "Ġpec": 6365,
      "Ġrisk": 6366,
      "Ġnoses": 6367,
      "Ġwritten": 6368,
      "ĠNina": 6369,
      "Ġtickled": 6370,
      "ĠLena": 6371,
      "Ġhowever": 6372,
      "ĠKids": 6373,
      "ĠKatie": 6374,
      "Ġworkers": 6375,
      "Beep": 6376,
      "Ġguessing": 6377,
      "Ġtwirling": 6378,
      "Excuse": 6379,
      "ĠYes": 6380,
      "Ġknowled": 6381,
      "Ġpens": 6382,
      "Ġgroups": 6383,
      "Ġperformed": 6384,
      "Ġchoices": 6385,
      "Ġscratches": 6386,
      "Ġtwinkling": 6387,
      "Roar": 6388,
      "Ġsatisfied": 6389,
      "Ġknowledge": 6390,
      "Rose": 6391,
      "Ġbiting": 6392,
      "Ġdesp": 6393,
      "Ġinsects": 6394,
      "Ġcrowd": 6395,
      "ĠBuggy": 6396,
      "ody": 6397,
      "ĠOnce": 6398,
      "itched": 6399,
      "Ġunf": 6400,
      "Ġunp": 6401,
      "ĠGina": 6402,
      "Ġcreating": 6403,
      "Ġwishing": 6404,
      "Ġwarnings": 6405,
      "Ġsolution": 6406,
      "Days": 6407,
      "tuce": 6408,
      "arth": 6409,
      "ĠHenny": 6410,
      "ĠMel": 6411,
      "elia": 6412,
      "ĠWoo": 6413,
      "Ġswords": 6414,
      "Ġlettuce": 6415,
      "Ġavo": 6416,
      "Ġicing": 6417,
      "Ġseven": 6418,
      "ults": 6419,
      "Ġchoo": 6420,
      "ĠAnne": 6421,
      "Ġsilent": 6422,
      "Ġbasement": 6423,
      "Ġcheeks": 6424,
      "cher": 6425,
      "ĠHippy": 6426,
      "Ġyounger": 6427,
      "ĠWoof": 6428,
      "Ġuns": 6429,
      "Ġbuses": 6430,
      "ĠPup": 6431,
      "Ġhides": 6432,
      "Ġwears": 6433,
      "Ġchefs": 6434,
      "ĠMilo": 6435,
      "usted": 6436,
      "ĠDizzy": 6437,
      "ilda": 6438,
      "Ġraces": 6439,
      "Ġsnowfl": 6440,
      "Ġsalty": 6441,
      "Ġswans": 6442,
      "Ġcompletely": 6443,
      "ĠJessica": 6444,
      "Ġchuckled": 6445,
      "aa": 6446,
      "Ġsway": 6447,
      "itely": 6448,
      "Ġcous": 6449,
      "Ġpins": 6450,
      "Ġplayhouse": 6451,
      "Ġclick": 6452,
      "Ġrefle": 6453,
      "Ġwipes": 6454,
      "aisies": 6455,
      "Ġcautiously": 6456,
      "ĠTry": 6457,
      "ĠSun": 6458,
      "Ġscra": 6459,
      "Ġcolored": 6460,
      "Ġremote": 6461,
      "acob": 6462,
      "Ġcuddly": 6463,
      "Ġpurr": 6464,
      "Follow": 6465,
      "Maggie": 6466,
      "Pe": 6467,
      "Ġdaisies": 6468,
      "ĠMad": 6469,
      "Ġworries": 6470,
      "Ġgrabbing": 6471,
      "Ġrestored": 6472,
      "Ġmuscle": 6473,
      "Ġdoctors": 6474,
      "Ġdiscovering": 6475,
      "Ġitchy": 6476,
      "ĠChew": 6477,
      "Out": 6478,
      "Teddy": 6479,
      "Zoom": 6480,
      "fit": 6481,
      "son": 6482,
      "Ġlamb": 6483,
      "Ġnine": 6484,
      "ĠSanta": 6485,
      "ĠBall": 6486,
      "ĠMoon": 6487,
      "ĠMix": 6488,
      "Ġsobbed": 6489,
      "Ġoutfit": 6490,
      "Ġexha": 6491,
      "ĠEarth": 6492,
      "Ġtractor": 6493,
      "Ġdances": 6494,
      "Ġentr": 6495,
      "Ġbumps": 6496,
      "Ġburst": 6497,
      "For": 6498,
      "Sandy": 6499,
      "ho": 6500,
      "Ġtapped": 6501,
      "Ġbumpy": 6502,
      "iti": 6503,
      "ĠLion": 6504,
      "Ġneedles": 6505,
      "boat": 6506,
      "Ġjobs": 6507,
      "ences": 6508,
      "Ġleading": 6509,
      "Ġspreading": 6510,
      "Ġsurface": 6511,
      "ĠFoxy": 6512,
      "Shh": 6513,
      "Buzz": 6514,
      "Ġdarling": 6515,
      "Big": 6516,
      "Ġfreed": 6517,
      "ĠJay": 6518,
      "Ġskunk": 6519,
      "Ġtwice": 6520,
      "Ġpaying": 6521,
      "Ġstomped": 6522,
      "Ġsewed": 6523,
      "rrr": 6524,
      "Ġproperly": 6525,
      "Alex": 6526,
      "Harry": 6527,
      "len": 6528,
      "ossible": 6529,
      "tle": 6530,
      "onny": 6531,
      "vers": 6532,
      "ĠMira": 6533,
      "Ġchanging": 6534,
      "aura": 6535,
      "Ġuntie": 6536,
      "iggie": 6537,
      "izzie": 6538,
      "Ġfigures": 6539,
      "ĠBetsy": 6540,
      "ĠMatt": 6541,
      "Ġaccomplish": 6542,
      "Ġpecked": 6543,
      "oke": 6544,
      "zie": 6545,
      "Ġtangled": 6546,
      "Ġrotten": 6547,
      "cky": 6548,
      "Ġvines": 6549,
      "Ġforehead": 6550,
      "coat": 6551,
      "Ġmints": 6552,
      "Ġinterested": 6553,
      "ĠStay": 6554,
      "Ġcelebrating": 6555,
      "Ġtoaster": 6556,
      "Ġtires": 6557,
      "Ġrotting": 6558,
      "Ġprovided": 6559,
      "ĠUnfortunately": 6560,
      "Ġtwinkle": 6561,
      "vin": 6562,
      "itches": 6563,
      "sequ": 6564,
      "Ġropes": 6565,
      "Ġscur": 6566,
      "ĠPr": 6567,
      "Ġimpossible": 6568,
      "Ġcovers": 6569,
      "Ġthud": 6570,
      "Ġsuffering": 6571,
      "Ġwow": 6572,
      "Those": 6573,
      "Ġraincoat": 6574,
      "Ġdeal": 6575,
      "Ġconsequ": 6576,
      "Ġpartic": 6577,
      "Ġlifting": 6578,
      "Ġfigured": 6579,
      "Ġtunnels": 6580,
      "Ġtipto": 6581,
      "Ġhonked": 6582,
      "Ġflavor": 6583,
      "Ġslammed": 6584,
      "Ġunpacked": 6585,
      "Ġalien": 6586,
      "Ġdollhouse": 6587,
      "Ġwraps": 6588,
      "Ġsymbols": 6589,
      "ĠNothing": 6590,
      "Ġexhausted": 6591,
      "etty": 6592,
      "ĠAdam": 6593,
      "Ġreason": 6594,
      "ĠDuck": 6595,
      "ĠDodo": 6596,
      "Ġcompetition": 6597,
      "Ġincreased": 6598,
      "ĠSparky": 6599,
      "Ġburrow": 6600,
      "Henry": 6601,
      "ĠQueen": 6602,
      "ouch": 6603,
      "ĠDee": 6604,
      "Ġdarkness": 6605,
      "Ġbows": 6606,
      "Ġseeker": 6607,
      "Ġlifts": 6608,
      "Ġfeeding": 6609,
      "ĠSophia": 6610,
      "ĠGoodbye": 6611,
      "Ġentrance": 6612,
      "Ġconsequences": 6613,
      "Listen": 6614,
      "ĠLuke": 6615,
      "Ġkings": 6616,
      "Ġleap": 6617,
      "agic": 6618,
      "ustom": 6619,
      "Ġsweets": 6620,
      "brush": 6621,
      "Ġdesigned": 6622,
      "Ġjackets": 6623,
      "Ġwobb": 6624,
      "Ġscurried": 6625,
      "Ġparticular": 6626,
      "Danny": 6627,
      "rink": 6628,
      "ĠSc": 6629,
      "stick": 6630,
      "Ġlosing": 6631,
      "ĠFu": 6632,
      "Ġbuying": 6633,
      "Ġsigned": 6634,
      "Ġvalued": 6635,
      "Ġimages": 6636,
      "Ġfuzzy": 6637,
      "iar": 6638,
      "Ġcustom": 6639,
      "Ġmer": 6640,
      "Ġgri": 6641,
      "Ġstool": 6642,
      "ĠMouse": 6643,
      "ĠSof": 6644,
      "Ġrainy": 6645,
      "Ġprinting": 6646,
      "Ġshaped": 6647,
      "Ġsibl": 6648,
      "Ġhesitated": 6649,
      "Ġdeserve": 6650,
      "Ġsiblings": 6651,
      "Whee": 6652,
      "lled": 6653,
      "lets": 6654,
      "Ġopp": 6655,
      "ĠMon": 6656,
      "Ġage": 6657,
      "Ġfever": 6658,
      "ĠEl": 6659,
      "Ġtramp": 6660,
      "ctions": 6661,
      "Ġslowed": 6662,
      "Ġprincesses": 6663,
      "Ġtwisting": 6664,
      "ĠYesterday": 6665,
      "ĠRollie": 6666,
      "Ġraindrops": 6667,
      "ĠTara": 6668,
      "Ġden": 6669,
      "Ġmater": 6670,
      "Ġbackward": 6671,
      "Ġflames": 6672,
      "ept": 6673,
      "ĠRain": 6674,
      "Ġbehavi": 6675,
      "Ġblocking": 6676,
      "Ġshops": 6677,
      "uggles": 6678,
      "Ġdecorating": 6679,
      "However": 6680,
      "Ġscrews": 6681,
      "Ġbuzzed": 6682,
      "Ġsquealed": 6683,
      "Ġtrampoline": 6684,
      "Ġmaterial": 6685,
      "ne": 6686,
      "Ġrust": 6687,
      "retch": 6688,
      "Ġswept": 6689,
      "ushing": 6690,
      "ĠDot": 6691,
      "Ġnecklaces": 6692,
      "Ġtricky": 6693,
      "Ġcamping": 6694,
      "Ġseparated": 6695,
      "ĠSnowman": 6696,
      "Ġpuppies": 6697,
      "Tweet": 6698,
      "Bill": 6699,
      "Co": 6700,
      "Jerry": 6701,
      "Ġplayers": 6702,
      "ĠBirthday": 6703,
      "Ġfact": 6704,
      "ĠClaire": 6705,
      "Ġbudge": 6706,
      "ĠPam": 6707,
      "ĠPatch": 6708,
      "Ġthrown": 6709,
      "Ġtalks": 6710,
      "Ġforgets": 6711,
      "Ġpancakes": 6712,
      "Ġdetermination": 6713,
      "Ġlungs": 6714,
      "Ġannoy": 6715,
      "Lilly": 6716,
      "Ġbak": 6717,
      "ĠTurtle": 6718,
      "ingo": 6719,
      "rious": 6720,
      "Ġstem": 6721,
      "ĠEls": 6722,
      "airy": 6723,
      "ĠOl": 6724,
      "Ġcreations": 6725,
      "ĠTrust": 6726,
      "Ġstudents": 6727,
      "ĠWhistle": 6728,
      "Ġheavier": 6729,
      "Pipp": 6730,
      "Sunny": 6731,
      "band": 6732,
      "ude": 6733,
      "ĠLarry": 6734,
      "Ġplanning": 6735,
      "Ġsunflowers": 6736,
      "Ġlending": 6737,
      "Am": 6738,
      "but": 6739,
      "rig": 6740,
      "Ġbodies": 6741,
      "Ġmonth": 6742,
      "Ġmeals": 6743,
      "Ġwiping": 6744,
      "Ġbracelets": 6745,
      "Ġmushrooms": 6746,
      "Ġsniffs": 6747,
      "Ġcubes": 6748,
      "no": 6749,
      "Ġnect": 6750,
      "Ġspat": 6751,
      "Ġfeast": 6752,
      "ĠCindy": 6753,
      "Ġglued": 6754,
      "ĠDoctor": 6755,
      "Ġripe": 6756,
      "Ġbaths": 6757,
      "Ġsailors": 6758,
      "Ġscooters": 6759,
      "Ġlabels": 6760,
      "Ġsewing": 6761,
      "Ġpupils": 6762,
      "Ġactivities": 6763,
      "Sophie": 6764,
      "Ġnectar": 6765,
      "Ġbacked": 6766,
      "Ġstung": 6767,
      "step": 6768,
      "Ġtreehouse": 6769,
      "iles": 6770,
      "Ġflipped": 6771,
      "abel": 6772,
      "Ġsnat": 6773,
      "Ġstolen": 6774,
      "Ġcelebration": 6775,
      "Ġincluding": 6776,
      "Ġobjects": 6777,
      "Ġinstrum": 6778,
      "Ġreflection": 6779,
      "Dan": 6780,
      "Ġaff": 6781,
      "Ġsense": 6782,
      "Ġcash": 6783,
      "Ġnood": 6784,
      "Ġclues": 6785,
      "Ġsomebody": 6786,
      "ĠDara": 6787,
      "ives": 6788,
      "Ġcuriously": 6789,
      "Ġache": 6790,
      "Ġcorners": 6791,
      "Ġpeeking": 6792,
      "Ġgrocer": 6793,
      "Ġdirections": 6794,
      "Ġavoid": 6795,
      "Get": 6796,
      "Luckily": 6797,
      "Under": 6798,
      "vroom": 6799,
      "Ġcott": 6800,
      "Ġpuff": 6801,
      "Ġearn": 6802,
      "ĠBiggie": 6803,
      "Ġstarfish": 6804,
      "Ġranger": 6805,
      "using": 6806,
      "Ġhider": 6807,
      "ĠOther": 6808,
      "Ġmatters": 6809,
      "Ġzebras": 6810,
      "Ġpreparing": 6811,
      "Ġencourag": 6812,
      "Ġfilms": 6813,
      "Ġrewarded": 6814,
      "Ġtossed": 6815,
      "Ġcousin": 6816,
      "Lulu": 6817,
      "ering": 6818,
      "ĠSleep": 6819,
      "ĠListen": 6820,
      "ters": 6821,
      "Ġhandful": 6822,
      "Ġwaiter": 6823,
      "Ġcounts": 6824,
      "Ġpassen": 6825,
      "ĠNana": 6826,
      "ĠSnuggles": 6827,
      "ivity": 6828,
      "Ġloops": 6829,
      "Ġforgiving": 6830,
      "Ġunsure": 6831,
      "Ġty": 6832,
      "Ġsan": 6833,
      "ĠHannah": 6834,
      "ĠLaser": 6835,
      "Ġflapping": 6836,
      "Ġgrows": 6837,
      "Ġsailboat": 6838,
      "Ġrecipe": 6839,
      "Ġcalmed": 6840,
      "ronaut": 6841,
      "Ġblinking": 6842,
      "ĠRudy": 6843,
      "ibi": 6844,
      "Ġastronaut": 6845,
      "rigued": 6846,
      "bric": 6847,
      "prin": 6848,
      "Ġgle": 6849,
      "ans": 6850,
      "Ġrising": 6851,
      "sty": 6852,
      "Ġfabric": 6853,
      "Ġuntied": 6854,
      "Ġhearing": 6855,
      "Ġsinger": 6856,
      "Ġfins": 6857,
      "athy": 6858,
      "Ġcreativity": 6859,
      "ĠNick": 6860,
      "ĠBeaky": 6861,
      "ĠWithout": 6862,
      "Ġquarreled": 6863,
      "Ġsank": 6864,
      "Pat": 6865,
      "cl": 6866,
      "pen": 6867,
      "ĠTiti": 6868,
      "lle": 6869,
      "Ġbeam": 6870,
      "Ġwarmer": 6871,
      "eese": 6872,
      "Ġshrinking": 6873,
      "Ġsuitcase": 6874,
      "Ġbeginning": 6875,
      "Ġdamage": 6876,
      "ĠBarky": 6877,
      "hi": 6878,
      "Ġdet": 6879,
      "imon": 6880,
      "Ġgeese": 6881,
      "Ġrushing": 6882,
      "emma": 6883,
      "Ġnests": 6884,
      "Ġsurfing": 6885,
      "Ġrecommended": 6886,
      "Ġcenter": 6887,
      "Ġbakery": 6888,
      "May": 6889,
      "Millie": 6890,
      "Nina": 6891,
      "Ġhus": 6892,
      "erate": 6893,
      "Ġshoo": 6894,
      "Ġdancers": 6895,
      "Ġcowb": 6896,
      "ĠOnly": 6897,
      "Ġimagining": 6898,
      "Ġindeed": 6899,
      "ĠChrist": 6900,
      "Dolly": 6901,
      "yan": 6902,
      "ĠTake": 6903,
      "Ġmaker": 6904,
      "igning": 6905,
      "Ġdod": 6906,
      "Ġscored": 6907,
      "Ġswir": 6908,
      "Ġchop": 6909,
      "Ġconn": 6910,
      "ibbit": 6911,
      "cope": 6912,
      "uess": 6913,
      "Ġtodd": 6914,
      "Ġrusty": 6915,
      "ĠLaura": 6916,
      "Ġrepa": 6917,
      "arac": 6918,
      "Ġdropping": 6919,
      "ĠZee": 6920,
      "Ġpaths": 6921,
      "Ġpresses": 6922,
      "Mrs": 6923,
      "Ġnightmares": 6924,
      "Ġnoodles": 6925,
      "eal": 6926,
      "rat": 6927,
      "endy": 6928,
      "Ġspins": 6929,
      "Ġposter": 6930,
      "Ġplans": 6931,
      "Ġmarked": 6932,
      "Ġtighter": 6933,
      "armer": 6934,
      "Ġtouches": 6935,
      "ĠPeanut": 6936,
      "ĠSadly": 6937,
      "Ruby": 6938,
      "Ġhusband": 6939,
      "atur": 6940,
      "Ġstrongest": 6941,
      "Ġqueens": 6942,
      "Ġvanilla": 6943,
      "Ġwhispers": 6944,
      "Ġcrackers": 6945,
      "Ġcushions": 6946,
      "Ġpleasure": 6947,
      "Ġseasons": 6948,
      "Ġguests": 6949,
      "Ġtiptoed": 6950,
      "Ġcashier": 6951,
      "Ġgroceries": 6952,
      "fall": 6953,
      "jo": 6954,
      "mas": 6955,
      "Ġtiss": 6956,
      "Ġtying": 6957,
      "immer": 6958,
      "Ġcharac": 6959,
      "ĠCara": 6960,
      "Ġafterwards": 6961,
      "Ġadult": 6962,
      "athan": 6963,
      "Ġdrawn": 6964,
      "Ġ--": 6965,
      "Ġrobber": 6966,
      "Ġsuits": 6967,
      "Ġborrowed": 6968,
      "Ġzipping": 6969,
      "Ġmailed": 6970,
      "Ġtissue": 6971,
      "bird": 6972,
      "Ġcoop": 6973,
      "ĠHold": 6974,
      "Ġnotes": 6975,
      "ĠWo": 6976,
      "iley": 6977,
      "Ġwrapping": 6978,
      "Ġsparks": 6979,
      "Ġlaying": 6980,
      "ments": 6981,
      "Ġsuffered": 6982,
      "Ġraccoon": 6983,
      "Ġregretted": 6984,
      "Ġpouted": 6985,
      "Ġmesmer": 6986,
      "Ġwobbly": 6987,
      "Ġrepaired": 6988,
      "ggy": 6989,
      "Ġaimed": 6990,
      "ces": 6991,
      "ĠJump": 6992,
      "Ġblown": 6993,
      "ishy": 6994,
      "Ġbelts": 6995,
      "Ġfrowning": 6996,
      "Ġspikes": 6997,
      "laying": 6998,
      "Ġencouraging": 6999,
      "rup": 7000,
      "Ġcrew": 7001,
      "Ġgross": 7002,
      "Ġrather": 7003,
      "ĠMa": 7004,
      "Ġroars": 7005,
      "aren": 7006,
      "ddie": 7007,
      "Ġsurprising": 7008,
      "iona": 7009,
      "Ġfart": 7010,
      "Ġsprang": 7011,
      "Ġwakes": 7012,
      "Ġstroked": 7013,
      "Ab": 7014,
      "uing": 7015,
      "wk": 7016,
      "yes": 7017,
      "Ġlower": 7018,
      "ongrat": 7019,
      "Ġwatering": 7020,
      "Ġamong": 7021,
      "Ġguide": 7022,
      "Ġpops": 7023,
      "Ġsqueak": 7024,
      "Ġleads": 7025,
      "Ġtubes": 7026,
      "Ġshovels": 7027,
      "ĠMikey": 7028,
      "Ġfirefly": 7029,
      "Ġwidened": 7030,
      "ĠCrab": 7031,
      "Ġsnatched": 7032,
      "Ellie": 7033,
      "oey": 7034,
      "onnie": 7035,
      "Ġplain": 7036,
      "Ġyum": 7037,
      "ĠLinda": 7038,
      "itted": 7039,
      "ĠBibi": 7040,
      "ĠMic": 7041,
      "Ġbackwards": 7042,
      "ĠAsh": 7043,
      "ĠFuzzy": 7044,
      "Baby": 7045,
      "Take": 7046,
      "cake": 7047,
      "cited": 7048,
      "the": 7049,
      "Ġtipped": 7050,
      "Ġmate": 7051,
      "orman": 7052,
      "ades": 7053,
      "Ġshown": 7054,
      "Ġthoughts": 7055,
      "rosty": 7056,
      "Ġovercome": 7057,
      "ĠKit": 7058,
      "issa": 7059,
      "Ġperforman": 7060,
      "iversity": 7061,
      "Ġsource": 7062,
      "Ġhopeful": 7063,
      "ĠUp": 7064,
      "Ġangels": 7065,
      "Ġpinching": 7066,
      "Ġcountryside": 7067,
      "Quick": 7068,
      "ĠSuzie": 7069,
      "Ġfirefighters": 7070,
      "ongratul": 7071,
      "'.\"": 7072,
      "Guess": 7073,
      "Vroom": 7074,
      "uzz": 7075,
      "itude": 7076,
      "Ġsale": 7077,
      "ĠBones": 7078,
      "child": 7079,
      "ĠAbbie": 7080,
      "Ġaside": 7081,
      "ĠJune": 7082,
      "Ġchip": 7083,
      "Ġhotter": 7084,
      "Ġseawe": 7085,
      "Ġbandages": 7086,
      "Ġrobots": 7087,
      "ĠStretch": 7088,
      "Ġgiggles": 7089,
      "Ġhoops": 7090,
      "ĠTweetie": 7091,
      "ĠYet": 7092,
      "Ġsprinkled": 7093,
      "Ġflavors": 7094,
      "Ġtalented": 7095,
      "Ġseaweed": 7096,
      "Kiki": 7097,
      "Mira": 7098,
      "Ribbit": 7099,
      "uppy": 7100,
      "Ġcoup": 7101,
      "Ġyelp": 7102,
      "Ġstitches": 7103,
      "Ġwee": 7104,
      "Ġchos": 7105,
      "Ġstopping": 7106,
      "Ġstreets": 7107,
      "Ġforgetting": 7108,
      "Ġdisturbing": 7109,
      "ĠMissy": 7110,
      "Ġgrandchild": 7111,
      "ĠGrumpy": 7112,
      "ĠChristmas": 7113,
      "Ġchosen": 7114,
      "Betty": 7115,
      "da": 7116,
      "Ġhawk": 7117,
      "ĠLizzie": 7118,
      "obody": 7119,
      "ĠFarmer": 7120,
      "iece": 7121,
      "Ġunw": 7122,
      "ĠCr": 7123,
      "Ġrains": 7124,
      "Ġsingle": 7125,
      "Ġsweetest": 7126,
      "Ġmarker": 7127,
      "ĠBubb": 7128,
      "Ġhealing": 7129,
      "Ġperforming": 7130,
      "Ġknots": 7131,
      "Always": 7132,
      "Quack": 7133,
      "Ġachieved": 7134,
      "Spike": 7135,
      "Ġfluttered": 7136,
      "Ġfarthest": 7137,
      "iding": 7138,
      "ĠSimon": 7139,
      "ently": 7140,
      "ĠMan": 7141,
      "ulp": 7142,
      "ĠFairy": 7143,
      "ĠKayla": 7144,
      "ĠPin": 7145,
      "ĠRe": 7146,
      "angle": 7147,
      "ertain": 7148,
      "Ġgenie": 7149,
      "Ġsending": 7150,
      "ĠSparkle": 7151,
      "Ġaccomplishment": 7152,
      "Jump": 7153,
      "lephant": 7154,
      "Ġrumble": 7155,
      "ĠFrosty": 7156,
      "ĠJacob": 7157,
      "ĠCathy": 7158,
      "umbling": 7159,
      "Ġdrivers": 7160,
      "Ġmagnets": 7161,
      "Ġhaircuts": 7162,
      "Ġforgiven": 7163,
      "Ġdentist": 7164,
      "prints": 7165,
      "?!\"": 7166,
      "Jul": 7167,
      "cused": 7168,
      "fus": 7169,
      "llen": 7170,
      "cho": 7171,
      "Ġblocked": 7172,
      "Ġintrigued": 7173,
      "Ġcleaner": 7174,
      "Ġbeloved": 7175,
      "Ġfills": 7176,
      "Ġstands": 7177,
      "Ġtested": 7178,
      "Ġsurfboard": 7179,
      "Ġhallway": 7180,
      "Ġslips": 7181,
      "ĠIsn": 7182,
      "Ġwobble": 7183,
      "Ġswimsuit": 7184,
      "Frank": 7185,
      "ummies": 7186,
      "ĠOliver": 7187,
      "Ġtoddler": 7188,
      "Car": 7189,
      "Zip": 7190,
      "hive": 7191,
      "Ġdip": 7192,
      "Ġnibb": 7193,
      "ĠSl": 7194,
      "igers": 7195,
      "Ġsofter": 7196,
      "ĠFire": 7197,
      "Ġwaterfall": 7198,
      "asty": 7199,
      "Ġstored": 7200,
      "Ġrivers": 7201,
      "ĠThanks": 7202,
      "Ġsupported": 7203,
      "ĠAlong": 7204,
      "Ġseconds": 7205,
      "Ġtrembled": 7206,
      "ĠAmelia": 7207,
      "ĠWooly": 7208,
      "Ġglee": 7209,
      "Ġperformance": 7210,
      "aver": 7211,
      "yond": 7212,
      "Ġdaring": 7213,
      "Ġcoug": 7214,
      "Ġbeyond": 7215,
      "Ġecho": 7216,
      "illed": 7217,
      "ĠWise": 7218,
      "ĠWilly": 7219,
      "Ġflas": 7220,
      "Ġends": 7221,
      "Ġfires": 7222,
      "Ġbeehive": 7223,
      "Ġneighbours": 7224,
      "ĠStella": 7225,
      "Ġmelons": 7226,
      "Ġdelivering": 7227,
      "Ġrepeating": 7228,
      "Ġpassports": 7229,
      "Ġspits": 7230,
      "Ġgreeted": 7231,
      "Ġmerma": 7232,
      "Ġcouple": 7233,
      "ean": 7234,
      "Ġturt": 7235,
      "Ġtummies": 7236,
      "Ġdie": 7237,
      "river": 7238,
      "Ġpeck": 7239,
      "Ġmagician": 7240,
      "Ġcolder": 7241,
      "Ġcreams": 7242,
      "Ġsecure": 7243,
      "ĠBloom": 7244,
      "Ġmarkers": 7245,
      "Ġreminds": 7246,
      "Ġcoloured": 7247,
      "Ġwiggly": 7248,
      "Ġsports": 7249,
      "Ġslices": 7250,
      "Ġstroke": 7251,
      "Clara": 7252,
      "ĠJudy": 7253,
      "Ġfirmly": 7254,
      "Ġgrip": 7255,
      "Ġturtles": 7256,
      "Like": 7257,
      "Su": 7258,
      "hog": 7259,
      "eds": 7260,
      "onies": 7261,
      "ĠSil": 7262,
      "ĠSal": 7263,
      "Ġev": 7264,
      "Ġwept": 7265,
      "chy": 7266,
      "Ġseals": 7267,
      "Ġwilling": 7268,
      "abby": 7269,
      "Ġamount": 7270,
      "Ġfocused": 7271,
      "Ġlessons": 7272,
      "Ġbells": 7273,
      "Ġhedgehog": 7274,
      "Ġreversed": 7275,
      "Ġlipstick": 7276,
      "ĠYog": 7277,
      "Ġsnowflakes": 7278,
      "Bang": 7279,
      "Bessie": 7280,
      "Mine": 7281,
      "Zoomy": 7282,
      "Ġmaster": 7283,
      "Ġnapped": 7284,
      "llas": 7285,
      "ading": 7286,
      "ĠRuff": 7287,
      "Ġgrassy": 7288,
      "Ġbits": 7289,
      "Ġexpress": 7290,
      "Ġtesting": 7291,
      "Ġsharks": 7292,
      "Ġumbrellas": 7293,
      "Ġsqueezing": 7294,
      "Ġhealth": 7295,
      "Ġpedaled": 7296,
      "ĠMixy": 7297,
      "Boys": 7298,
      "Hurry": 7299,
      "Ġnur": 7300,
      "Ġstain": 7301,
      "ighting": 7302,
      "pecting": 7303,
      "Ġdrawers": 7304,
      "Ġbaskets": 7305,
      "Ġhoriz": 7306,
      "ĠNice": 7307,
      "Ġfrowns": 7308,
      "Ġencount": 7309,
      "ĠBiggy": 7310,
      "Ġfreedom": 7311,
      "',": 7312,
      "Dear": 7313,
      "Kim": 7314,
      "ael": 7315,
      "urious": 7316,
      "Ġmast": 7317,
      "Ġund": 7318,
      "Ġsped": 7319,
      "ĠWendy": 7320,
      "elle": 7321,
      "Ġeverybody": 7322,
      "Ġcoloring": 7323,
      "Ġpaintbrush": 7324,
      "ĠZippy": 7325,
      "Ġcrossing": 7326,
      "Ġhorizon": 7327,
      "Bear": 7328,
      "crow": 7329,
      "Ġtigers": 7330,
      "Ġsy": 7331,
      "Ġmoo": 7332,
      "lling": 7333,
      "Ġswitched": 7334,
      "ĠCow": 7335,
      "Ġdollars": 7336,
      "Ġcreamy": 7337,
      "Ġjoining": 7338,
      "ĠToot": 7339,
      "Ġfits": 7340,
      "Ġzooms": 7341,
      "Ġpours": 7342,
      "Ġwisely": 7343,
      "Ġseller": 7344,
      "Ġsheets": 7345,
      "Ġrespond": 7346,
      "Kate": 7347,
      "Penny": 7348,
      "Very": 7349,
      "een": 7350,
      "Ġhour": 7351,
      "onna": 7352,
      "ĠHug": 7353,
      "Ġbru": 7354,
      "Ġlongest": 7355,
      "ĠEx": 7356,
      "Ġdef": 7357,
      "Ġwrink": 7358,
      "Ġsandy": 7359,
      "Ġpolitely": 7360,
      "ĠNear": 7361,
      "Ġgracefully": 7362,
      "Ġenthusiasm": 7363,
      "Put": 7364,
      "mates": 7365,
      "Ġais": 7366,
      "Ġaud": 7367,
      "Ġbam": 7368,
      "Ġwadd": 7369,
      "rey": 7370,
      "ita": 7371,
      "omp": 7372,
      "ats": 7373,
      "vered": 7374,
      "Ġlies": 7375,
      "Ġscient": 7376,
      "Ġworn": 7377,
      "Ġchanges": 7378,
      "Ġdonkey": 7379,
      "ĠRyan": 7380,
      "ĠOt": 7381,
      "Ġunderstands": 7382,
      "ĠBlinky": 7383,
      "Ġpanicked": 7384,
      "Ġcrowns": 7385,
      "Ġrelaxing": 7386,
      "Ġmagnif": 7387,
      "Ġspells": 7388,
      "Ġtwinkled": 7389,
      "ĠSilver": 7390,
      "Ġscientist": 7391,
      "Zara": 7392,
      "ĠBad": 7393,
      "Ġreass": 7394,
      "Ġspies": 7395,
      "ellow": 7396,
      "Ġflight": 7397,
      "Ġprove": 7398,
      "ĠElephant": 7399,
      "gestion": 7400,
      "Ġfocus": 7401,
      "Ġexplo": 7402,
      "Ġarr": 7403,
      "Ġsuggestion": 7404,
      "Ġbanged": 7405,
      "Ġships": 7406,
      "Ġspeeding": 7407,
      "Ġslipping": 7408,
      "Ġhesitant": 7409,
      "Ġwider": 7410,
      "Snow": 7411,
      "Ġmesmerized": 7412,
      "Moo": 7413,
      "Sad": 7414,
      "Tony": 7415,
      "father": 7416,
      "Ġponies": 7417,
      "veral": 7418,
      "Ġliqu": 7419,
      "Ġseveral": 7420,
      "Thomas": 7421,
      "Ġtearing": 7422,
      "bbled": 7423,
      "Ġsmelling": 7424,
      "Ġbathing": 7425,
      "Ġspoonful": 7426,
      "Ġdesigns": 7427,
      "Ġspills": 7428,
      "Ġmosquitoes": 7429,
      "Ġgears": 7430,
      "Ġbreathed": 7431,
      "Ġstudent": 7432,
      "etchup": 7433,
      "Ġinstruments": 7434,
      "Ġaudience": 7435,
      "Liz": 7436,
      "Wake": 7437,
      "Ġbully": 7438,
      "Ġhoo": 7439,
      "oni": 7440,
      "ility": 7441,
      "allowed": 7442,
      "ably": 7443,
      "retty": 7444,
      "Ġswallowed": 7445,
      "ĠDina": 7446,
      "ousy": 7447,
      "Ġgardener": 7448,
      "acy": 7449,
      "Ġsails": 7450,
      "ĠChirp": 7451,
      "Ġfootprints": 7452,
      "ĠNobody": 7453,
      "Ġscarecrow": 7454,
      "Alright": 7455,
      "Ġscolds": 7456,
      "Ġcharacters": 7457,
      "Ġunwra": 7458,
      "Ġbamboo": 7459,
      "Ġliquid": 7460,
      "Aunt": 7461,
      "Bow": 7462,
      "Mo": 7463,
      "Try": 7464,
      "aven": 7465,
      "bage": 7466,
      "mallow": 7467,
      "Ġtil": 7468,
      "ancy": 7469,
      "oring": 7470,
      "ĠHoney": 7471,
      "esp": 7472,
      "Ġneare": 7473,
      "Ġaren": 7474,
      "Ġtweet": 7475,
      "Ġheading": 7476,
      "Ġworrying": 7477,
      "shmallow": 7478,
      "Ġcloudy": 7479,
      "Ġresisted": 7480,
      "Ste": 7481,
      "Ġsneezes": 7482,
      "Ġpays": 7483,
      "Ġterrified": 7484,
      "Ġsniffing": 7485,
      "Ġyielded": 7486,
      "Ġencouragement": 7487,
      "Ġscraped": 7488,
      "ĠPrince": 7489,
      "Ġmaterials": 7490,
      "Coco": 7491,
      "Ġpassengers": 7492,
      "Ġevil": 7493,
      "Even": 7494,
      "Keep": 7495,
      "Katie": 7496,
      "Ġbitten": 7497,
      "ition": 7498,
      "Ġwasting": 7499,
      "Ġhiss": 7500,
      "Ġknives": 7501,
      "Ġflip": 7502,
      "ĠPen": 7503,
      "ĠPuppy": 7504,
      "Ġsquishy": 7505,
      "ĠRon": 7506,
      "Ġhandsome": 7507,
      "Ġswimmer": 7508,
      "Ġmarshmallow": 7509,
      "Josh": 7510,
      "Ġaction": 7511,
      "Ġsolving": 7512,
      "Ġnervously": 7513,
      "Ġhumans": 7514,
      "ĠUniversity": 7515,
      "years": 7516,
      "Ġpurrs": 7517,
      "Jazz": 7518,
      "Rock": 7519,
      "ps": 7520,
      "Ġ2": 7521,
      "Ġsou": 7522,
      "Ġsill": 7523,
      "ĠTia": 7524,
      "Ġcor": 7525,
      "stalk": 7526,
      "ĠLoop": 7527,
      "Ġloses": 7528,
      "Ġswap": 7529,
      "tha": 7530,
      "ĠRel": 7531,
      "Ġrespected": 7532,
      "Ġelbow": 7533,
      "Ġkittens": 7534,
      "Ġminded": 7535,
      "Ġhumming": 7536,
      "Ġbeanstalk": 7537,
      "ĠFlick": 7538,
      "Leave": 7539,
      "Ġsimply": 7540,
      "Ġcrashing": 7541,
      "ĠJulia": 7542,
      "Ġsweaty": 7543,
      "Ġthorns": 7544,
      "immering": 7545,
      "Ġmermaid": 7546,
      "ivery": 7547,
      "line": 7548,
      "udy": 7549,
      "Ġmunch": 7550,
      "Ġinsp": 7551,
      "ĠLuckily": 7552,
      "Ġketchup": 7553,
      "Ġreapp": 7554,
      "acky": 7555,
      "ĠHerb": 7556,
      "ĠGary": 7557,
      "Ġdrown": 7558,
      "Ġignoring": 7559,
      "Ġcamel": 7560,
      "ĠShow": 7561,
      "ĠShark": 7562,
      "Ġbeeped": 7563,
      "Buzzy": 7564,
      "while": 7565,
      "ĠPoor": 7566,
      "Slow": 7567,
      "zoom": 7568,
      "ĠTe": 7569,
      "Ġlent": 7570,
      "Ġnuzz": 7571,
      "Ġgonna": 7572,
      "inger": 7573,
      "Ġease": 7574,
      "ntil": 7575,
      "unched": 7576,
      "ĠMousy": 7577,
      "alph": 7578,
      "Ġexce": 7579,
      "ooky": 7580,
      "ĠEddie": 7581,
      "Ġsquir": 7582,
      "Ġbravest": 7583,
      "Ġjoins": 7584,
      "Ġdrifted": 7585,
      "ounce": 7586,
      "ichael": 7587,
      "Ġcovering": 7588,
      "Ġprayers": 7589,
      "Ġmagazines": 7590,
      "ĠRobbie": 7591,
      "Ġscrewd": 7592,
      "Chloe": 7593,
      "Ġsurroundings": 7594,
      "Ġrisks": 7595,
      "Ġbehavior": 7596,
      "Ġdump": 7597,
      "Ġmerry": 7598,
      "omb": 7599,
      "iment": 7600,
      "Ġgest": 7601,
      "ening": 7602,
      "anwhile": 7603,
      "Ġrowed": 7604,
      "kend": 7605,
      "Ġshady": 7606,
      "Ġsoaking": 7607,
      "ĠAng": 7608,
      "Ġspice": 7609,
      "dding": 7610,
      "Ġadults": 7611,
      "ounced": 7612,
      "ĠEmmy": 7613,
      "Ġbelieving": 7614,
      "Goodnight": 7615,
      "Ġpeacefully": 7616,
      "Ġadds": 7617,
      "Ġartist": 7618,
      "Ġdelayed": 7619,
      "Ġdiscussed": 7620,
      "Freddy": 7621,
      "Ġburnt": 7622,
      "Ġfamiliar": 7623,
      "ĠChess": 7624,
      "Ġdecisions": 7625,
      "Ġwounds": 7626,
      "Ġsweaters": 7627,
      "ĠMint": 7628,
      "ĠMaddie": 7629,
      "Ġrustling": 7630,
      "Ġastronauts": 7631,
      "Ġweekend": 7632,
      "Ġencountered": 7633,
      "Adam": 7634,
      "Mat": 7635,
      "lo": 7636,
      "ĠTess": 7637,
      "Ġmiles": 7638,
      "elie": 7639,
      "ĠFighting": 7640,
      "Ġcheated": 7641,
      "ears": 7642,
      "Ġdripping": 7643,
      "Ġsets": 7644,
      "ĠTodd": 7645,
      "Ġexplains": 7646,
      "Ġsnaps": 7647,
      "ĠFlutter": 7648,
      "Ġgazing": 7649,
      "Ġlicking": 7650,
      "Ġ10": 7651,
      "Pippin": 7652,
      "espite": 7653,
      "mies": 7654,
      "parent": 7655,
      "Ġtar": 7656,
      "Ġwaking": 7657,
      "Ġpuck": 7658,
      "rie": 7659,
      "ĠIzzy": 7660,
      "Ġelf": 7661,
      "rac": 7662,
      "Ġchar": 7663,
      "Ġhanding": 7664,
      "Ġcheers": 7665,
      "Ġsquaw": 7666,
      "Ġcracks": 7667,
      "Ġfloors": 7668,
      "Ġtasting": 7669,
      "Ġantic": 7670,
      "Ġpurpose": 7671,
      "Ġteams": 7672,
      "ĠShare": 7673,
      "Ġtemper": 7674,
      "Ġnewspapers": 7675,
      "ĠFishy": 7676,
      "Ġmatey": 7677,
      "Ġcongratul": 7678,
      "Ġcertain": 7679,
      "Ġinches": 7680,
      "Ġplucked": 7681,
      "Ġstacked": 7682,
      "ĠMake": 7683,
      "ĠMina": 7684,
      "Ġclue": 7685,
      "Ġlapt": 7686,
      "ĠWell": 7687,
      "Ġtricycle": 7688,
      "Ġdisob": 7689,
      "ĠOkay": 7690,
      "Instead": 7691,
      "Ġquieter": 7692,
      "Ġminds": 7693,
      "Ġlowered": 7694,
      "attered": 7695,
      "Ġaeroplanes": 7696,
      "ĠPatty": 7697,
      "ĠDavey": 7698,
      "ĠAbi": 7699,
      "ĠMatilda": 7700,
      "Ġscrewdriver": 7701,
      "Jamie": 7702,
      "Lucky": 7703,
      "cc": 7704,
      "fly": 7705,
      "hel": 7706,
      "ĠToys": 7707,
      "Ġdarl": 7708,
      "Ġgap": 7709,
      "Ġinj": 7710,
      "Ġforce": 7711,
      "Ġwhimp": 7712,
      "Ġmanag": 7713,
      "Ġnodding": 7714,
      "Ġswallow": 7715,
      "andas": 7716,
      "Ġstorekeeper": 7717,
      "Ġwrigg": 7718,
      "Ġdelivery": 7719,
      "Ġpuzzled": 7720,
      "Ġfootstep": 7721,
      "Ġtests": 7722,
      "Ġtrusting": 7723,
      "Ġtwists": 7724,
      "Ġrats": 7725,
      "Ġsweep": 7726,
      "Ġscattering": 7727,
      "Ġgrandparent": 7728,
      "Ġbothering": 7729,
      "ĠGreeny": 7730,
      "ĠQuacky": 7731,
      "hopper": 7732,
      "ĠElsie": 7733,
      "Ġlaptop": 7734,
      "Ġdarlings": 7735,
      "Ġfootsteps": 7736,
      "Back": 7737,
      "Near": 7738,
      "Olive": 7739,
      "Ġbomb": 7740,
      "order": 7741,
      "Ġocc": 7742,
      "oosh": 7743,
      "ĠBang": 7744,
      "aint": 7745,
      "ĠFiona": 7746,
      "Ġflown": 7747,
      "Ġtoward": 7748,
      "romise": 7749,
      "ĠGray": 7750,
      "Ġpolar": 7751,
      "Ġshrank": 7752,
      "Ġminding": 7753,
      "Ġprick": 7754,
      "Ġtaped": 7755,
      "Ġhunters": 7756,
      "Ġedges": 7757,
      "Ġlanguages": 7758,
      "Ġbreathing": 7759,
      "Ġflaps": 7760,
      "Two": 7761,
      "Ġsyrup": 7762,
      "Ġtarget": 7763,
      "Carl": 7764,
      "David": 7765,
      "Open": 7766,
      "Sw": 7767,
      "Too": 7768,
      "ca": 7769,
      "five": 7770,
      "fire": 7771,
      "over": 7772,
      "vy": 7773,
      "rever": 7774,
      "Ġheight": 7775,
      "Ġonward": 7776,
      "ecca": 7777,
      "Ġmanners": 7778,
      "Ġscamp": 7779,
      "Ġcosy": 7780,
      "ĠElle": 7781,
      "Which": 7782,
      "Ġslither": 7783,
      "Afterwards": 7784,
      "Ġthroughout": 7785,
      "osite": 7786,
      "ĠZoey": 7787,
      "ĠShadow": 7788,
      "Ġtravels": 7789,
      "Ġpleaded": 7790,
      "Ġpostman": 7791,
      "Ġotters": 7792,
      "Ġpermitted": 7793,
      "Ġmeows": 7794,
      "ĠMaya": 7795,
      "ĠMeg": 7796,
      "Ġrefreshing": 7797,
      "Ġfirefighter": 7798,
      "ĠChewy": 7799,
      "Ġnurses": 7800,
      "Ġwaddled": 7801,
      "Ġgesture": 7802,
      "reverse": 7803,
      "Elly": 7804,
      "Red": 7805,
      "found": 7806,
      "hew": 7807,
      "rect": 7808,
      "Ġnasty": 7809,
      "ĠBri": 7810,
      "Ġanger": 7811,
      "Ġfunn": 7812,
      "Ġbacks": 7813,
      "ĠFle": 7814,
      "Ġcharge": 7815,
      "beep": 7816,
      "sol": 7817,
      "ĠJojo": 7818,
      "Ġcons": 7819,
      "Ġpills": 7820,
      "Ġdestroying": 7821,
      "Ġbicycles": 7822,
      "Ġrescuing": 7823,
      "Ġneatly": 7824,
      "ĠRufus": 7825,
      "Ġpeeled": 7826,
      "Ġcustomer": 7827,
      "aturday": 7828,
      "ĠYoga": 7829,
      "Binky": 7830,
      "Hannah": 7831,
      "iel": 7832,
      "Ġtuck": 7833,
      "ĠTip": 7834,
      "Ġmood": 7835,
      "ĠSaturday": 7836,
      "etah": 7837,
      "ĠTime": 7838,
      "Ġgobbled": 7839,
      "ĠCle": 7840,
      "uffin": 7841,
      "Ġconc": 7842,
      "Ġgrasshopper": 7843,
      "ipper": 7844,
      "Ġraising": 7845,
      "Ġcausing": 7846,
      "Ġserving": 7847,
      "Ġengines": 7848,
      "Ġerase": 7849,
      "Ġmugs": 7850,
      "ĠRobo": 7851,
      "ĠRobert": 7852,
      "Ġdisplayed": 7853,
      "Ġmassages": 7854,
      "Ġstyles": 7855,
      "Uncle": 7856,
      "ĠGranny": 7857,
      "ĠLouise": 7858,
      "Outside": 7859,
      "Ġopposite": 7860,
      "ĠEliz": 7861,
      "Ġannoyed": 7862,
      "Ġmonths": 7863,
      "Ros": 7864,
      "freeze": 7865,
      "under": 7866,
      "Ġfant": 7867,
      "rest": 7868,
      "Ġpandas": 7869,
      "orter": 7870,
      "orking": 7871,
      "unity": 7872,
      "ĠMabel": 7873,
      "rain": 7874,
      "opes": 7875,
      "Ġcond": 7876,
      "ĠJon": 7877,
      "Ġblast": 7878,
      "Ġposit": 7879,
      "Ġtrot": 7880,
      "Ġtwenty": 7881,
      "Momma": 7882,
      "Ġcheetah": 7883,
      "ails": 7884,
      "Ġdears": 7885,
      "Ġexplorer": 7886,
      "Ġplanting": 7887,
      "Ġmixture": 7888,
      "Ġdesigning": 7889,
      "Ġdriveway": 7890,
      "awn": 7891,
      "Ġscares": 7892,
      "ĠUntil": 7893,
      "Ġreminding": 7894,
      "Ġfriendships": 7895,
      "Ġfiles": 7896,
      "Ġfloats": 7897,
      "ĠYellow": 7898,
      "Ġpunishment": 7899,
      "ĠAnother": 7900,
      "Ġproper": 7901,
      "Maria": 7902,
      "ĠSwim": 7903,
      "Ġdespite": 7904,
      "Ġyelped": 7905,
      "ĠBubba": 7906,
      "Ġcorrect": 7907,
      "Ġanticip": 7908,
      ",'": 7909,
      "Speedy": 7910,
      "int": 7911,
      "ĠTre": 7912,
      "atty": 7913,
      "rier": 7914,
      "Ġsteth": 7915,
      "Ġshall": 7916,
      "Ġcarries": 7917,
      "ĠCut": 7918,
      "ĠKip": 7919,
      "ĠPer": 7920,
      "Ġbraver": 7921,
      "ĠGerry": 7922,
      "ĠJoanna": 7923,
      "Ġdressing": 7924,
      "Ġresults": 7925,
      "Ġshinier": 7926,
      "Behind": 7927,
      "Ġcalmly": 7928,
      "Ġaddress": 7929,
      "Ġgrandfather": 7930,
      "Ġbrushing": 7931,
      "ĠAmber": 7932,
      "ĠJanie": 7933,
      "ĠOtto": 7934,
      "Ġtilted": 7935,
      "Ġstethos": 7936,
      "By": 7937,
      "Nice": 7938,
      "hny": 7939,
      "Ġwithin": 7940,
      "Ġyumm": 7941,
      "Ġrout": 7942,
      "Ġmommies": 7943,
      "Ġwhales": 7944,
      "Ġchin": 7945,
      "Ġcares": 7946,
      "ĠEva": 7947,
      "Ġrunner": 7948,
      "Ġsnuck": 7949,
      "Ġenem": 7950,
      "Ġglitt": 7951,
      "Ġchecks": 7952,
      "Ġdeed": 7953,
      "Ġfinal": 7954,
      "ĠJacky": 7955,
      "Ġfights": 7956,
      "Ġstepping": 7957,
      "artled": 7958,
      "Ġjoyful": 7959,
      "Ġcafe": 7960,
      "Ġjets": 7961,
      "Ġstamped": 7962,
      "Ġcombed": 7963,
      "Ġknocking": 7964,
      "Birdy": 7965,
      "Someone": 7966,
      "Ġcowboy": 7967,
      "Ġwrinkled": 7968,
      "Ġanticipation": 7969,
      "Ġstethoscope": 7970,
      "Ġenemies": 7971,
      "Mad": 7972,
      "daughter": 7973,
      "lied": 7974,
      "rons": 7975,
      "ĠSay": 7976,
      "ĠMore": 7977,
      "Ġsmashed": 7978,
      "Ġscen": 7979,
      "Ġwhoever": 7980,
      "ĠPine": 7981,
      "Ġfinishing": 7982,
      "ĠGert": 7983,
      "Ġtreated": 7984,
      "Ġbenches": 7985,
      "ĠNut": 7986,
      "Ġsupplied": 7987,
      "Ġjourneys": 7988,
      "Ġaprons": 7989,
      "Ġsqueaked": 7990,
      "Ġcampfire": 7991,
      "Ġoysters": 7992,
      "Ġcells": 7993,
      "Choo": 7994,
      "ĠYummy": 7995,
      "Ġsandcastles": 7996,
      "Ġinvites": 7997,
      "Ġexperien": 7998,
      "ĠJean": 7999,
      "Ġleapt": 8000,
      "Ġdodged": 8001,
      "Ġfantastic": 8002,
      "Bee": 8003,
      "Pinky": 8004,
      "rough": 8005,
      "worm": 8006,
      "Ġ5": 8007,
      "Ġfaded": 8008,
      "Ġpound": 8009,
      "ighing": 8010,
      "Ġbeaver": 8011,
      "Ġupside": 8012,
      "ĠBub": 8013,
      "Ġrods": 8014,
      "ĠAndrew": 8015,
      "oger": 8016,
      "ĠRoo": 8017,
      "Ġconvin": 8018,
      "Ġbuckled": 8019,
      "Ġcollap": 8020,
      "ĠNever": 8021,
      "Ġorders": 8022,
      "Ġsqueezes": 8023,
      "Ġbeetles": 8024,
      "Ġautomobiles": 8025,
      "ĠVicky": 8026,
      "Ġscratching": 8027,
      "Ġtravelled": 8028,
      "udged": 8029,
      "Ġmesses": 8030,
      "Ġtemperature": 8031,
      "Ġcongratulated": 8032,
      "Ġscampered": 8033,
      "Hoppy": 8034,
      "iving": 8035,
      "Ġtin": 8036,
      "Ġbless": 8037,
      "ĠTerry": 8038,
      "ĠSince": 8039,
      "pple": 8040,
      "ĠBaa": 8041,
      "ĠBingo": 8042,
      "Ġmemb": 8043,
      "Ġnewfound": 8044,
      "ssy": 8045,
      "ĠInky": 8046,
      "ĠPiggy": 8047,
      "ĠJackie": 8048,
      "Ġfarmers": 8049,
      "Ġpotion": 8050,
      "Finny": 8051,
      "ĠChip": 8052,
      "Ġquestioned": 8053,
      "ĠUgly": 8054,
      "Ġmiller": 8055,
      "Ġcrawls": 8056,
      "Ġgrandson": 8057,
      "ĠBeef": 8058,
      "Ġappreciation": 8059,
      "Ġconsid": 8060,
      "Ġmembers": 8061,
      "Find": 8062,
      "Lena": 8063,
      "Sun": 8064,
      "Ted": 8065,
      "bell": 8066,
      "munk": 8067,
      "sn": 8068,
      "Ġill": 8069,
      "Ġactor": 8070,
      "inted": 8071,
      "Ġgoo": 8072,
      "Ġplug": 8073,
      "Ġramp": 8074,
      "ument": 8075,
      "Ġclicked": 8076,
      "ĠFly": 8077,
      "ĠDay": 8078,
      "ĠEric": 8079,
      "Ġnearly": 8080,
      "ĠPh": 8081,
      "ĠRita": 8082,
      "Ġduckling": 8083,
      "Ġsoapy": 8084,
      "Ġghosts": 8085,
      "Ġyawning": 8086,
      "Ġsupporting": 8087,
      "Ġexercises": 8088,
      "ĠSofty": 8089,
      "ĠReliable": 8090,
      "Beth": 8091,
      "Kids": 8092,
      "Sque": 8093,
      "ms": 8094,
      "sie": 8095,
      "yle": 8096,
      "Ġtumbled": 8097,
      "Ġplot": 8098,
      "ĠShelly": 8099,
      "ĠTomorrow": 8100,
      "Ġscurry": 8101,
      "Ġfaith": 8102,
      "ĠWait": 8103,
      "Ġcoach": 8104,
      "ĠJonny": 8105,
      "ĠEverybody": 8106,
      "Ġdoorbell": 8107,
      "ĠPuffy": 8108,
      "ĠPlaying": 8109,
      "Ġcraft": 8110,
      "Ġattem": 8111,
      "Ġprobably": 8112,
      "Ġprizes": 8113,
      "ĠAlthough": 8114,
      "Ġscram": 8115,
      "Ġtempt": 8116,
      "Ġenvelopes": 8117,
      "Ġburying": 8118,
      "ĠFlap": 8119,
      "Shrink": 8120,
      "ĠAmanda": 8121,
      ".'\"": 8122,
      "Ġsternly": 8123,
      "ĠMelissa": 8124,
      "Ġmarshmallows": 8125,
      "Ġexperienced": 8126,
      "Arrr": 8127,
      "Friends": 8128,
      "Lizzy": 8129,
      "Pandy": 8130,
      "evin": 8131,
      "iam": 8132,
      "water": 8133,
      "Ġsens": 8134,
      "reg": 8135,
      "ĠLia": 8136,
      "ĠBoom": 8137,
      "ĠMuffin": 8138,
      "ooks": 8139,
      "ĠMomma": 8140,
      "Ġmoons": 8141,
      "ĠCandy": 8142,
      "ĠPl": 8143,
      "Ġsquished": 8144,
      "Ġbusiness": 8145,
      "Ġconvers": 8146,
      "Ġbrightest": 8147,
      "Ġjars": 8148,
      "Ġcloths": 8149,
      "Ġactive": 8150,
      "Ġhangers": 8151,
      "Ġpicnics": 8152,
      "ĠTruck": 8153,
      "Meanwhile": 8154,
      "ĠSnake": 8155,
      "ĠTweety": 8156,
      "Ġcomforting": 8157,
      "Ġawoke": 8158,
      "Ġgroan": 8159,
      "Ġapologised": 8160,
      "Ġinvitations": 8161,
      "Ġwhispering": 8162,
      "Ġbothered": 8163,
      "Ġsirens": 8164,
      "Julie": 8165,
      "Ġechoed": 8166,
      "Suzy": 8167,
      "Ġaisle": 8168,
      "Ġinspired": 8169,
      "Ġexcept": 8170,
      "Hop": 8171,
      "Jessie": 8172,
      "Magic": 8173,
      "form": 8174,
      "val": 8175,
      "Ġbuddy": 8176,
      "ĠHor": 8177,
      "Ġodd": 8178,
      "ĠLy": 8179,
      "Ġlocks": 8180,
      "Ġrely": 8181,
      "Ġsadder": 8182,
      "Ġpeep": 8183,
      "Ġslapping": 8184,
      "ĠCari": 8185,
      "Ġgardens": 8186,
      "ĠKaren": 8187,
      "Ġhates": 8188,
      "Ġenjoyable": 8189,
      "Ġdresser": 8190,
      "Ġwarri": 8191,
      "Ġrecorder": 8192,
      "Ġfleas": 8193,
      "Ġtoolbox": 8194,
      "Ġtickles": 8195,
      "Ġcuddles": 8196,
      "Ġstrips": 8197,
      "Ġaware": 8198,
      "Ġweapons": 8199,
      "ĠWhoever": 8200,
      "Ġcotton": 8201,
      "Ġoccas": 8202,
      "Abby": 8203,
      "Brrr": 8204,
      "mine": 8205,
      "vant": 8206,
      "ĠTaking": 8207,
      "ettle": 8208,
      "ĠLuc": 8209,
      "Ġshorter": 8210,
      "Ġrewards": 8211,
      "Ġalthough": 8212,
      "bbers": 8213,
      "Ġcheating": 8214,
      "ĠPick": 8215,
      "ĠGl": 8216,
      "Ġdisc": 8217,
      "Ġsnowy": 8218,
      "Ġdreamt": 8219,
      "Ġsmartest": 8220,
      "Ġattack": 8221,
      "meow": 8222,
      "Ġchopped": 8223,
      "Ġtidied": 8224,
      "Ġclassmates": 8225,
      "Ġmischie": 8226,
      "Ġburns": 8227,
      "Ġunlo": 8228,
      "affle": 8229,
      "Ġspeaks": 8230,
      "Ġuniforms": 8231,
      "ĠMartha": 8232,
      "Ġtips": 8233,
      "Ġsincere": 8234,
      "ĠSofia": 8235,
      "Ġconnected": 8236,
      "ĠAngel": 8237,
      "Ġgrandparents": 8238,
      "Ġscrambled": 8239,
      "Ġmischievous": 8240,
      "Ball": 8241,
      "Pip": 8242,
      "Tilly": 8243,
      "eel": 8244,
      "Ġdate": 8245,
      "onse": 8246,
      "Ġger": 8247,
      "ĠAna": 8248,
      "urrender": 8249,
      "Ġsculp": 8250,
      "ĠFay": 8251,
      "Ġflips": 8252,
      "Ġposes": 8253,
      "ĠCally": 8254,
      "Ġbluebird": 8255,
      "ĠKay": 8256,
      "Ġclosing": 8257,
      "Ġhatch": 8258,
      "Ġwarmly": 8259,
      "Finn": 8260,
      "Ġbellies": 8261,
      "Ġbounces": 8262,
      "erpiece": 8263,
      "Ġshorts": 8264,
      "Ġresponse": 8265,
      "Ġadmiration": 8266,
      "what": 8267,
      "Ġfluttering": 8268,
      "Ġtype": 8269,
      "Ġforgiveness": 8270,
      "ĠFlexible": 8271,
      "ĠSwimmy": 8272,
      "Ġyummiest": 8273,
      "Ġsculpture": 8274,
      "Mother": 8275,
      "bu": 8276,
      "iens": 8277,
      "ibbles": 8278,
      "tock": 8279,
      "Ġouch": 8280,
      "Ġborn": 8281,
      "Ġfet": 8282,
      "Ġfif": 8283,
      "ĠLot": 8284,
      "ĠMother": 8285,
      "Ġrobbers": 8286,
      "Ġaliens": 8287,
      "ĠDespite": 8288,
      "Ġpose": 8289,
      "Ġthanking": 8290,
      "Ġdangers": 8291,
      "Ġgrat": 8292,
      "Ġoverw": 8293,
      "Ġdefe": 8294,
      "ĠDoes": 8295,
      "Ġdrift": 8296,
      "Ġsteering": 8297,
      "iggles": 8298,
      "Ġbelongings": 8299,
      "Ġstorms": 8300,
      "ĠStan": 8301,
      "Ġchocolates": 8302,
      "ĠAli": 8303,
      "Ġenviron": 8304,
      "Ġaccidents": 8305,
      "Ġstreamers": 8306,
      "Ġprevented": 8307,
      "Ġbends": 8308,
      "Ġrows": 8309,
      "Ġscores": 8310,
      "Ġbackpacks": 8311,
      "Bluey": 8312,
      "Ġstroll": 8313,
      "ĠPinchy": 8314,
      "Ġresponded": 8315,
      "Ġconvinced": 8316,
      "Ġenvironment": 8317,
      "Bug": 8318,
      "Fl": 8319,
      "Since": 8320,
      "match": 8321,
      "ĠTippy": 8322,
      "Ġdial": 8323,
      "arrow": 8324,
      "irac": 8325,
      "Ġweeds": 8326,
      "elope": 8327,
      "urricane": 8328,
      "Ġgoodby": 8329,
      "Ġexpecting": 8330,
      "Ġdecl": 8331,
      "Ġcleans": 8332,
      "Ġloudest": 8333,
      "ipes": 8334,
      "ĠRicky": 8335,
      "Ġsingers": 8336,
      "Ġmovements": 8337,
      "covered": 8338,
      "Ġcourt": 8339,
      "Ġsprays": 8340,
      "Ġdecoration": 8341,
      "ĠUse": 8342,
      "Ġspringing": 8343,
      "Ġgarbage": 8344,
      "Ġcops": 8345,
      "Ġargument": 8346,
      "Ġgranddaughter": 8347,
      "Ġzigzags": 8348,
      "ĠBoat": 8349,
      "Trust": 8350,
      "Ahoy": 8351,
      "ĠJudge": 8352,
      "Ġdamaged": 8353,
      "Ġcustomers": 8354,
      "Ġafford": 8355,
      "Ġbeaming": 8356,
      "Ġshooed": 8357,
      "Ġchipmunk": 8358,
      "Ġdisobey": 8359,
      "Ġprickly": 8360,
      "Ġgoodbyes": 8361,
      "Both": 8362,
      "Cindy": 8363,
      "Grow": 8364,
      "Gina": 8365,
      "Jan": 8366,
      "cie": 8367,
      "date": 8368,
      "eat": 8369,
      "jest": 8370,
      "lers": 8371,
      "Ġtapping": 8372,
      "ĠTammy": 8373,
      "ative": 8374,
      "Ġplugged": 8375,
      "unes": 8376,
      "ĠWin": 8377,
      "abelle": 8378,
      "Ġcleared": 8379,
      "Ġbrains": 8380,
      "boards": 8381,
      "shadow": 8382,
      "Ġsteer": 8383,
      "Ġwinners": 8384,
      "Does": 8385,
      "rench": 8386,
      "Ġvisits": 8387,
      "ordinary": 8388,
      "ĠChick": 8389,
      "Ġteachers": 8390,
      "Ġspoiling": 8391,
      "Ġshrunk": 8392,
      "Ġfolds": 8393,
      "ĠBrush": 8394,
      "Ġstuffing": 8395,
      "Ġpepperoni": 8396,
      "Ġfishes": 8397,
      "Ġshortcut": 8398,
      "Ġfreezing": 8399,
      "Ġunpacking": 8400,
      "Ġstomp": 8401,
      "ĠMarch": 8402,
      "Ġsurrendered": 8403,
      "Ġtravelling": 8404,
      "Ġopinions": 8405,
      "Ġswayed": 8406,
      "ĠExcited": 8407,
      "Ġtrotted": 8408,
      "ĠNutty": 8409,
      "Ġattempt": 8410,
      "Ġgratitude": 8411,
      "Ġoverwhel": 8412,
      "Gigi": 8413,
      "Hmm": 8414,
      "Mouse": 8415,
      "Tree": 8416,
      "oison": 8417,
      "Ġsuck": 8418,
      "erk": 8419,
      "lls": 8420,
      "igger": 8421,
      "ĠLaw": 8422,
      "alf": 8423,
      "Ġclip": 8424,
      "Ġspooky": 8425,
      "ĠFel": 8426,
      "Ġflashed": 8427,
      "Ġsuns": 8428,
      "Ġchill": 8429,
      "Ġtalents": 8430,
      "Ġdoorway": 8431,
      "ĠPuff": 8432,
      "ĠRia": 8433,
      "Ġconqu": 8434,
      "Ġself": 8435,
      "Ġbeaks": 8436,
      "izzes": 8437,
      "ugging": 8438,
      "Ġdigs": 8439,
      "Ġdisappoint": 8440,
      "Ġpressing": 8441,
      "Ġtraps": 8442,
      "Ġextraordinary": 8443,
      "Ġincreasing": 8444,
      "Anne": 8445,
      "Ġoffering": 8446,
      "ĠChris": 8447,
      "Ġcottage": 8448,
      "Abigail": 8449,
      "Ġcoughed": 8450,
      "Ġmasterpiece": 8451,
      "Ġnearest": 8452,
      "Ġspices": 8453,
      "snap": 8454,
      "Honey": 8455,
      "Ray": 8456,
      "wise": 8457,
      "Ġicky": 8458,
      "initely": 8459,
      "Ġpoop": 8460,
      "idy": 8461,
      "ĠSilly": 8462,
      "ilities": 8463,
      "Ġrays": 8464,
      "ĠLight": 8465,
      "ĠAg": 8466,
      "Ġclerk": 8467,
      "ĠWaffle": 8468,
      "Ġseeking": 8469,
      "Ġkinder": 8470,
      "bert": 8471,
      "bee": 8472,
      "Ġmessed": 8473,
      "acock": 8474,
      "shaped": 8475,
      "ĠOh": 8476,
      "Ġvisitors": 8477,
      "ĠNurse": 8478,
      "Ġwiser": 8479,
      "Ġexamining": 8480,
      "Ġcrocodiles": 8481,
      "Ġdiamonds": 8482,
      "ĠVroom": 8483,
      "Ġweighs": 8484,
      "Ġstructures": 8485,
      "Ġdemanding": 8486,
      "Ġmeowing": 8487,
      "Ġcubs": 8488,
      "Ġobeyed": 8489,
      "Ġglittering": 8490,
      "Ġseagulls": 8491,
      "Ġinsisting": 8492,
      "ĠSadie": 8493,
      "Ġchoosing": 8494,
      "Ġaffect": 8495,
      "ĠWolf": 8496,
      "ĠMicroscope": 8497,
      "ĠReady": 8498,
      "Ġdrowned": 8499,
      "Baa": 8500,
      "Dr": 8501,
      "Never": 8502,
      "oor": 8503,
      "ppies": 8504,
      "ĠBerry": 8505,
      "Ġform": 8506,
      "ala": 8507,
      "alth": 8508,
      "Ġloc": 8509,
      "ĠAr": 8510,
      "ĠAny": 8511,
      "Ġscri": 8512,
      "Ġlaces": 8513,
      "ellie": 8514,
      "Ġexch": 8515,
      "Ġtrading": 8516,
      "Ġsnug": 8517,
      "ĠThunder": 8518,
      "Ġglobe": 8519,
      "Ġcheat": 8520,
      "ĠKelly": 8521,
      "ĠAllie": 8522,
      "Ġbathed": 8523,
      "Ġforgives": 8524,
      "Ġpresented": 8525,
      "Ġscrub": 8526,
      "Ġtraveling": 8527,
      "ĠMissile": 8528,
      "Ġdisappearing": 8529,
      "Ġobserving": 8530,
      "ĠFlo": 8531,
      "Ġdiscussing": 8532,
      "Ġluckily": 8533,
      "Ġfireflies": 8534,
      "Ġefforts": 8535,
      "Ġactivity": 8536,
      "ĠMinnie": 8537,
      "ĠWonder": 8538,
      "ĠCrane": 8539,
      "Ġflashing": 8540,
      "Steve": 8541,
      "Ġnuzzled": 8542,
      "Ġdeclared": 8543,
      "Ġoverwhelmed": 8544,
      "bank": 8545,
      "good": 8546,
      "ollen": 8547,
      "yler": 8548,
      "isc": 8549,
      "ĠHurry": 8550,
      "ĠMag": 8551,
      "Ġbirdhouse": 8552,
      "Ġcarts": 8553,
      "Ġexamp": 8554,
      "Ġblushed": 8555,
      "Ġswollen": 8556,
      "Ġintently": 8557,
      "Ġunable": 8558,
      "Ġpeacock": 8559,
      "Ġquizzes": 8560,
      "Ġforests": 8561,
      "Ġsooner": 8562,
      "ĠGill": 8563,
      "ĠOp": 8564,
      "ĠOff": 8565,
      "Ġbuilder": 8566,
      "Ġelect": 8567,
      "Ġwelcoming": 8568,
      "Ġbattle": 8569,
      "Ġtroubles": 8570,
      "orky": 8571,
      "ĠBecky": 8572,
      "Ġcheerfully": 8573,
      "Ġzips": 8574,
      "Ġspilling": 8575,
      "Ġhooks": 8576,
      "Ġgasps": 8577,
      "ĠCloud": 8578,
      "Ġkneeling": 8579,
      "Ġsnuggle": 8580,
      "ĠRosa": 8581,
      "Ġexperiences": 8582,
      "alloween": 8583,
      "Ġsnowflake": 8584,
      "Ġparticularly": 8585,
      "Ġgerms": 8586,
      "Ġexample": 8587,
      "Br": 8588,
      "Fifi": 8589,
      "Hope": 8590,
      "Jess": 8591,
      "Ġaim": 8592,
      "ĠSean": 8593,
      "ĠHurricane": 8594,
      "ili": 8595,
      "ĠHello": 8596,
      "Ġplaydate": 8597,
      "Only": 8598,
      "Ġwealth": 8599,
      "Ġforts": 8600,
      "Ġnecks": 8601,
      "Ġkilled": 8602,
      "Ġass": 8603,
      "raw": 8604,
      "Ġspy": 8605,
      "Ġfailed": 8606,
      "ĠWhee": 8607,
      "Ġbride": 8608,
      "Ġchilly": 8609,
      "Ġpoppies": 8610,
      "bble": 8611,
      "Ġtowns": 8612,
      "ĠRuth": 8613,
      "ĠGemma": 8614,
      "Ġnights": 8615,
      "Ġpackages": 8616,
      "Ġsqueaky": 8617,
      "Ġstatues": 8618,
      "Ġcosts": 8619,
      "iolet": 8620,
      "Ġbulbs": 8621,
      "Ġvests": 8622,
      "Ġrepairing": 8623,
      "Ġrewarding": 8624,
      "Ġmodels": 8625,
      "Ġscoops": 8626,
      "Ġcommon": 8627,
      "Ġopport": 8628,
      "ĠRainbow": 8629,
      "Ġdefinitely": 8630,
      "Ġmagnifying": 8631,
      "elieve": 8632,
      "Ġdiscou": 8633,
      "Ava": 8634,
      "Danger": 8635,
      "Each": 8636,
      "Zigzag": 8637,
      "net": 8638,
      "Ġwig": 8639,
      "Ġmend": 8640,
      "erts": 8641,
      "Ġsacks": 8642,
      "ĠHalloween": 8643,
      "Ġbeast": 8644,
      "ĠLenny": 8645,
      "ĠBro": 8646,
      "Ġsoot": 8647,
      "Ġrebu": 8648,
      "ici": 8649,
      "ĠJumpy": 8650,
      "Ġblamed": 8651,
      "Ġsunsc": 8652,
      "aptain": 8653,
      "ĠCammy": 8654,
      "Ġfoam": 8655,
      "Ġoffic": 8656,
      "ĠGir": 8657,
      "ĠGlow": 8658,
      "acing": 8659,
      "Ġmats": 8660,
      "Ġriverbank": 8661,
      "ebecca": 8662,
      "Ġacts": 8663,
      "ĠPeep": 8664,
      "ĠAlarm": 8665,
      "Ġleans": 8666,
      "Ġguarding": 8667,
      "ĠHelen": 8668,
      "Ġrepeats": 8669,
      "ĠOrange": 8670,
      "ĠLiza": 8671,
      "Ġinchworm": 8672,
      "Ġrips": 8673,
      "Ġaccomplished": 8674,
      "Ġannoying": 8675,
      "ĠElsa": 8676,
      "Ġearned": 8677,
      "Ġreassured": 8678,
      "Ġcorrectly": 8679,
      "ĠGertie": 8680,
      "Ġsunscreen": 8681,
      "Eat": 8682,
      "rily": 8683,
      "ĠTell": 8684,
      "Ġcoral": 8685,
      "Ġheaven": 8686,
      "idence": 8687,
      "ĠSuper": 8688,
      "Ġinter": 8689,
      "Ġweighing": 8690,
      "ĠMagic": 8691,
      "ĠMichael": 8692,
      "Ġbecomes": 8693,
      "Ġunfortunately": 8694,
      "Ġoldest": 8695,
      "Ġsnort": 8696,
      "Ġdev": 8697,
      "ĠOxy": 8698,
      "Ġsprout": 8699,
      "Ġwhistles": 8700,
      "Ġchews": 8701,
      "Ġsurv": 8702,
      "Ġexplaining": 8703,
      "Ġdesserts": 8704,
      "ĠHelping": 8705,
      "Ġhonking": 8706,
      "Twinkle": 8707,
      "Ġbruises": 8708,
      "Ġhooves": 8709,
      "Rosie": 8710,
      "Ġcollapsed": 8711,
      "Ġscurrying": 8712,
      "Ġconversation": 8713,
      "Ġpeeped": 8714,
      "Got": 8715,
      "Ma": 8716,
      "Milo": 8717,
      "Nick": 8718,
      "Squ": 8719,
      "Splash": 8720,
      "ngest": 8721,
      "rob": 8722,
      "sers": 8723,
      "inny": 8724,
      "its": 8725,
      "Ġlimp": 8726,
      "Ġwashes": 8727,
      "iri": 8728,
      "ets": 8729,
      "ĠHolly": 8730,
      "Ġrumbling": 8731,
      "Ġyoungest": 8732,
      "ĠLung": 8733,
      "ĠBumpy": 8734,
      "idey": 8735,
      "ĠJelly": 8736,
      "ashes": 8737,
      "Ġsleeps": 8738,
      "Ġarmy": 8739,
      "Ġdrying": 8740,
      "Ġshines": 8741,
      "ĠGracie": 8742,
      "Ġshyly": 8743,
      "Being": 8744,
      "Ġpancake": 8745,
      "Ġexpert": 8746,
      "Ġreturning": 8747,
      "Ġcomets": 8748,
      "Ġnovels": 8749,
      "ĠFloppy": 8750,
      "Ġapology": 8751,
      "Ġhonks": 8752,
      "Snap": 8753,
      "Ġpuppets": 8754,
      "ĠWoolly": 8755,
      "People": 8756,
      "hole": 8757,
      "Ġmanager": 8758,
      "Ġpositive": 8759,
      "Ġelectric": 8760,
      "Ġofficers": 8761,
      "Claire": 8762,
      "Freeze": 8763,
      "Rachel": 8764,
      "mers": 8765,
      "Ġpant": 8766,
      "pples": 8767,
      "Ġhisses": 8768,
      "ĠLina": 8769,
      "ĠMatch": 8770,
      "Ġsobbing": 8771,
      "Ġsoda": 8772,
      "Ġparks": 8773,
      "Ġfacing": 8774,
      "icking": 8775,
      "ĠDilly": 8776,
      "ĠDrag": 8777,
      "Ġunz": 8778,
      "Ġmoat": 8779,
      "venir": 8780,
      "Ġforeshadow": 8781,
      "Ġsquinted": 8782,
      "that": 8783,
      "Whenever": 8784,
      "Ġdollar": 8785,
      "Ġmeaning": 8786,
      "ĠGoose": 8787,
      "ĠGiant": 8788,
      "ĠJoan": 8789,
      "Ġcountries": 8790,
      "Ġemb": 8791,
      "Ġtidying": 8792,
      "Ġhonesty": 8793,
      "Ġdiscoveries": 8794,
      "Ġcroaked": 8795,
      "ĠTwisty": 8796,
      "Ġcables": 8797,
      "Ġapplauding": 8798,
      "Ġstomachs": 8799,
      "Ġwebs": 8800,
      "Ġemerged": 8801,
      "Ġsneaks": 8802,
      "Ġhesitation": 8803,
      "Ġunfair": 8804,
      "Ġbehaviour": 8805,
      "ĠSalt": 8806,
      "Ġsouvenir": 8807,
      "Ġwriggled": 8808,
      "ĠJonathan": 8809,
      "ĠBubu": 8810,
      "Deal": 8811,
      "Joy": 8812,
      "aty": 8813,
      "Ġthump": 8814,
      "uno": 8815,
      "ĠMath": 8816,
      "Ġformed": 8817,
      "Ġbond": 8818,
      "Ġscent": 8819,
      "ĠJes": 8820,
      "Ġwaters": 8821,
      "antha": 8822,
      "Ġjumper": 8823,
      "Ġtrigger": 8824,
      "ĠCare": 8825,
      "Ġparted": 8826,
      "Ġfinishes": 8827,
      "Ġtops": 8828,
      "ĠTooth": 8829,
      "Ġmoonlight": 8830,
      "ĠNancy": 8831,
      "Ġafar": 8832,
      "Ġanswering": 8833,
      "Ġnumbered": 8834,
      "Ġcaps": 8835,
      "Ġgenerosity": 8836,
      "Ġthicker": 8837,
      "Ġbreaths": 8838,
      "Ġexams": 8839,
      "Ġcaterpillars": 8840,
      "Ġvibr": 8841,
      "Ġstacks": 8842,
      "Ġribbit": 8843,
      "ĠDaniel": 8844,
      "ĠFlop": 8845,
      "ĠSmoke": 8846,
      "Ġcrowded": 8847,
      "ĠAuntie": 8848,
      "Excited": 8849,
      "Ġpaddling": 8850,
      "ĠCrabby": 8851,
      "Sophia": 8852,
      "Pippa": 8853,
      "Ġdetect": 8854,
      "Ġconnect": 8855,
      "Sadly": 8856,
      "ĠFlicker": 8857,
      "Ġreappeared": 8858,
      "Ġgroaned": 8859,
      "Ġfetched": 8860,
      "Bo": 8861,
      "Jacob": 8862,
      "aily": 8863,
      "cat": 8864,
      "ĠToo": 8865,
      "ĠTiger": 8866,
      "Ġpapa": 8867,
      "Ġmirac": 8868,
      "ige": 8869,
      "ĠIm": 8870,
      "ĠIce": 8871,
      "storm": 8872,
      "ending": 8873,
      "ĠBarry": 8874,
      "ĠBonnie": 8875,
      "Ġdock": 8876,
      "Ġwhoosh": 8877,
      "lyn": 8878,
      "Ġclut": 8879,
      "Ġcocoon": 8880,
      "Ġblond": 8881,
      "Ġsnorted": 8882,
      "Ġhardest": 8883,
      "ĠPop": 8884,
      "ĠRatty": 8885,
      "Ġarrest": 8886,
      "Ġcupcakes": 8887,
      "asha": 8888,
      "peed": 8889,
      "cessary": 8890,
      "cycles": 8891,
      "Ġfoxes": 8892,
      "Ġlunchtime": 8893,
      "Ġ''": 8894,
      "ĠRobin": 8895,
      "keepers": 8896,
      "Owl": 8897,
      "Ġproviding": 8898,
      "Ġcurl": 8899,
      "Ġawful": 8900,
      "Ġtimid": 8901,
      "Ġannounced": 8902,
      "Ġmajest": 8903,
      "Ġcowboys": 8904,
      "Ġswirl": 8905,
      "reya": 8906,
      "Ġunwrapped": 8907,
      "Ġsquirted": 8908,
      "racted": 8909,
      "Ġdisappointment": 8910,
      "Ġdiscouraged": 8911,
      "gar": 8912,
      "ror": 8913,
      "Ġtopp": 8914,
      "Ġfaint": 8915,
      "Ġpasses": 8916,
      "Ġsav": 8917,
      "Ġraking": 8918,
      "Ġhissing": 8919,
      "Ġstall": 8920,
      "stand": 8921,
      "esses": 8922,
      "ching": 8923,
      "ugar": 8924,
      "Ġwhir": 8925,
      "Ġjugg": 8926,
      "Ġscowl": 8927,
      "elling": 8928,
      "ĠFriend": 8929,
      "ĠJet": 8930,
      "ĠSocky": 8931,
      "ĠCook": 8932,
      "Ġshares": 8933,
      "Ġdoorstep": 8934,
      "Ġcheaper": 8935,
      "ĠRalph": 8936,
      "ĠRoger": 8937,
      "ĠGabby": 8938,
      "Ġdripped": 8939,
      "ĠZipper": 8940,
      "ĠNe": 8941,
      "Ġstretches": 8942,
      "Ġcrystals": 8943,
      "Ġunlocking": 8944,
      "ĠFluff": 8945,
      "ĠFlora": 8946,
      "Ġpalms": 8947,
      "Ġquacks": 8948,
      "ibly": 8949,
      "why": 8950,
      "Robbie": 8951,
      "Ġtypes": 8952,
      "Ġexploded": 8953,
      "iscuit": 8954,
      "Bounce": 8955,
      "Catch": 8956,
      "Im": 8957,
      "Mon": 8958,
      "Playing": 8959,
      "Sc": 8960,
      "mered": 8961,
      "of": 8962,
      "war": 8963,
      "edic": 8964,
      "rent": 8965,
      "erg": 8966,
      "anced": 8967,
      "ircle": 8968,
      "ĠMine": 8969,
      "Ġlasers": 8970,
      "ĠWr": 8971,
      "ĠFa": 8972,
      "ĠDuke": 8973,
      "Ġposs": 8974,
      "ĠEat": 8975,
      "Ġskies": 8976,
      "ĠCars": 8977,
      "ĠCurious": 8978,
      "ĠCaptain": 8979,
      "roken": 8980,
      "Ġteles": 8981,
      "ĠJody": 8982,
      "Ġcrops": 8983,
      "Ġstew": 8984,
      "Ġmarve": 8985,
      "ĠJohnson": 8986,
      "Ġattitude": 8987,
      "Ġhorri": 8988,
      "Jackie": 8989,
      "Ġmarking": 8990,
      "ĠNora": 8991,
      "ocular": 8992,
      "Ġweaker": 8993,
      "Ġmindful": 8994,
      "Ġmaps": 8995,
      "Ġsuccessfully": 8996,
      "Ġmattered": 8997,
      "ĠStep": 8998,
      "ispy": 8999,
      "Ġmicrow": 9000,
      "ĠPeace": 9001,
      "Ġthreads": 9002,
      "Ġdesks": 9003,
      "Ġbumping": 9004,
      "Ġpleas": 9005,
      "Ġpokes": 9006,
      "Ġheels": 9007,
      "Ġinstantly": 9008,
      "Robby": 9009,
      "Ġsituations": 9010,
      "Ġchatting": 9011,
      "ĠSleepy": 9012,
      "Ġarranged": 9013,
      "Snowy": 9014,
      "Ġmunching": 9015,
      "Ġfunniest": 9016,
      "Ġroutine": 9017,
      "eeling": 9018,
      "ĠFaye": 9019,
      "ĠFelix": 9020,
      "Ġtelescope": 9021,
      "Sm": 9022,
      "free": 9023,
      "lish": 9024,
      "off": 9025,
      "poison": 9026,
      "tw": 9027,
      "uel": 9028,
      "uum": 9029,
      "Ġtunes": 9030,
      "aron": 9031,
      "Ġhabit": 9032,
      "ĠSir": 9033,
      "rice": 9034,
      "Ġrin": 9035,
      "Ġruff": 9036,
      "sess": 9037,
      "ĠBally": 9038,
      "ĠMoppy": 9039,
      "Ġmomma": 9040,
      "Ġshimmering": 9041,
      "chief": 9042,
      "Ġbold": 9043,
      "Ġroyal": 9044,
      "Ġflock": 9045,
      "epy": 9046,
      "Ġchili": 9047,
      "istory": 9048,
      "uster": 9049,
      "ĠCro": 9050,
      "ĠCici": 9051,
      "Ġsnapping": 9052,
      "ortunately": 9053,
      "ĠKevin": 9054,
      "ĠRusty": 9055,
      "Ġmustn": 9056,
      "Ġbubbling": 9057,
      "Ġzookeepers": 9058,
      "Ġhangs": 9059,
      "Ġstretchy": 9060,
      "Ġbinocular": 9061,
      "Ġmeadows": 9062,
      "Ġartwork": 9063,
      "Ġvacuum": 9064,
      "Nothing": 9065,
      "boos": 9066,
      "Bubbles": 9067,
      "ĠMole": 9068,
      "Davey": 9069,
      "Ġcentre": 9070,
      "Ġswirls": 9071,
      "ĠBrian": 9072,
      "Ġgooey": 9073,
      "ĠDragon": 9074,
      "Ġmicrowave": 9075,
      "Ant": 9076,
      "Gr": 9077,
      "Karen": 9078,
      "broken": 9079,
      "ril": 9080,
      "ssess": 9081,
      "uise": 9082,
      "Ġsigning": 9083,
      "Ġlull": 9084,
      "Ġdep": 9085,
      "Ġcuc": 9086,
      "oned": 9087,
      "Ġsax": 9088,
      "ĠHo": 9089,
      "Ġrack": 9090,
      "Ġstun": 9091,
      "entr": 9092,
      "ĠMus": 9093,
      "Ġshh": 9094,
      "icate": 9095,
      "Ġcluck": 9096,
      "Ġmuster": 9097,
      "ifully": 9098,
      "Ġpossess": 9099,
      "Ġstrum": 9100,
      "Ġenemy": 9101,
      "ĠKyle": 9102,
      "ĠPretty": 9103,
      "Ġfixer": 9104,
      "Ġsweeter": 9105,
      "Ġdrip": 9106,
      "ĠOpen": 9107,
      "Ġbuilders": 9108,
      "Ġcreak": 9109,
      "Ġpatches": 9110,
      "Doctor": 9111,
      "Ġattacked": 9112,
      "Ġbowing": 9113,
      "Ġbubbly": 9114,
      "ĠGold": 9115,
      "Ġtrusts": 9116,
      "ĠStill": 9117,
      "Ġtoothbrush": 9118,
      "Ġskips": 9119,
      "Ġexperiment": 9120,
      "Ġquacking": 9121,
      "Ġairplanes": 9122,
      "ibility": 9123,
      "Frog": 9124,
      "Ġdetails": 9125,
      "Ġnibbled": 9126,
      "Ġflashes": 9127,
      "Ġwhimpered": 9128,
      "Ġconcentr": 9129,
      "ĠEliza": 9130,
      "Squeaky": 9131,
      "Ġwarrior": 9132,
      "\"!": 9133,
      "Cra": 9134,
      "Wally": 9135,
      "Want": 9136,
      "lt": 9137,
      "Ġ4": 9138,
      "Ġbou": 9139,
      "Ġfoggy": 9140,
      "Ġmunched": 9141,
      "ingly": 9142,
      "ĠMaisy": 9143,
      "ĠMindy": 9144,
      "Ġsmelt": 9145,
      "ĠAc": 9146,
      "Ġleaking": 9147,
      "Ġclips": 9148,
      "Ġworst": 9149,
      "ĠFun": 9150,
      "asmine": 9151,
      "othy": 9152,
      "ĠCake": 9153,
      "ĠCoby": 9154,
      "Ġfond": 9155,
      "Ġwinding": 9156,
      "Ġoffers": 9157,
      "Ġbeautifully": 9158,
      "this": 9159,
      "Ġowns": 9160,
      "Ġvegg": 9161,
      "Ġjud": 9162,
      "Ġkeyhole": 9163,
      "Ġguards": 9164,
[...]
